{
  "version": "1.0",
  "truncation": null,
  "padding": null,
  "added_tokens": [
    {
      "id": 0,
      "content": "[PAD]",
      "single_word": false,
      "lstrip": false,
      "rstrip": false,
      "normalized": false,
      "special": true
    },
    {
      "id": 1,
      "content": "[UNK]",
      "single_word": false,
      "lstrip": false,
      "rstrip": false,
      "normalized": false,
      "special": true
    },
    {
      "id": 2,
      "content": "[CLS]",
      "single_word": false,
      "lstrip": false,
      "rstrip": false,
      "normalized": false,
      "special": true
    },
    {
      "id": 3,
      "content": "[SEP]",
      "single_word": false,
      "lstrip": false,
      "rstrip": false,
      "normalized": false,
      "special": true
    },
    {
      "id": 4,
      "content": "[MASK]",
      "single_word": false,
      "lstrip": false,
      "rstrip": false,
      "normalized": false,
      "special": true
    }
  ],
  "normalizer": {
    "type": "BertNormalizer",
    "clean_text": true,
    "handle_chinese_chars": true,
    "strip_accents": false,
    "lowercase": true
  },
  "pre_tokenizer": {
    "type": "BertPreTokenizer"
  },
  "post_processor": {
    "type": "TemplateProcessing",
    "single": [
      {
        "SpecialToken": {
          "id": "[CLS]",
          "type_id": 0
        }
      },
      {
        "Sequence": {
          "id": "A",
          "type_id": 0
        }
      },
      {
        "SpecialToken": {
          "id": "[SEP]",
          "type_id": 0
        }
      }
    ],
    "pair": [
      {
        "SpecialToken": {
          "id": "[CLS]",
          "type_id": 0
        }
      },
      {
        "Sequence": {
          "id": "A",
          "type_id": 0
        }
      },
      {
        "SpecialToken": {
          "id": "[SEP]",
          "type_id": 0
        }
      },
      {
        "Sequence": {
          "id": "B",
          "type_id": 1
        }
      },
      {
        "SpecialToken": {
          "id": "[SEP]",
          "type_id": 1
        }
      }
    ],
    "special_tokens": {
      "[CLS]": {
        "id": "[CLS]",
        "ids": [
          2
        ],
        "tokens": [
          "[CLS]"
        ]
      },
      "[SEP]": {
        "id": "[SEP]",
        "ids": [
          3
        ],
        "tokens": [
          "[SEP]"
        ]
      }
    }
  },
  "decoder": {
    "type": "WordPiece",
    "prefix": "##",
    "cleanup": true
  },
  "model": {
    "type": "WordPiece",
    "unk_token": "[UNK]",
    "continuing_subword_prefix": "##",
    "max_input_chars_per_word": 100,
    "vocab": {
      "[PAD]": 0,
      "[UNK]": 1,
      "[CLS]": 2,
      "[SEP]": 3,
      "[MASK]": 4,
      "!": 5,
      "\"": 6,
      "#": 7,
      "$": 8,
      "%": 9,
      "&": 10,
      "'": 11,
      "(": 12,
      ")": 13,
      "*": 14,
      "+": 15,
      ",": 16,
      "-": 17,
      ".": 18,
      "/": 19,
      "0": 20,
      "1": 21,
      "2": 22,
      "3": 23,
      "4": 24,
      "5": 25,
      "6": 26,
      "7": 27,
      "8": 28,
      "9": 29,
      ":": 30,
      ";": 31,
      "<": 32,
      "=": 33,
      ">": 34,
      "?": 35,
      "@": 36,
      "[": 37,
      "\\": 38,
      "]": 39,
      "^": 40,
      "_": 41,
      "`": 42,
      "a": 43,
      "b": 44,
      "c": 45,
      "d": 46,
      "e": 47,
      "f": 48,
      "g": 49,
      "h": 50,
      "i": 51,
      "j": 52,
      "k": 53,
      "l": 54,
      "m": 55,
      "n": 56,
      "o": 57,
      "p": 58,
      "q": 59,
      "r": 60,
      "s": 61,
      "t": 62,
      "u": 63,
      "v": 64,
      "w": 65,
      "x": 66,
      "y": 67,
      "z": 68,
      "{": 69,
      "|": 70,
      "}": 71,
      "~": 72,
      "¡": 73,
      "¢": 74,
      "£": 75,
      "¤": 76,
      "¥": 77,
      "§": 78,
      "¨": 79,
      "©": 80,
      "ª": 81,
      "«": 82,
      "¬": 83,
      "®": 84,
      "°": 85,
      "±": 86,
      "²": 87,
      "³": 88,
      "´": 89,
      "µ": 90,
      "·": 91,
      "¹": 92,
      "º": 93,
      "»": 94,
      "¼": 95,
      "½": 96,
      "¿": 97,
      "×": 98,
      "ß": 99,
      "à": 100,
      "á": 101,
      "â": 102,
      "ã": 103,
      "ä": 104,
      "å": 105,
      "æ": 106,
      "ç": 107,
      "è": 108,
      "é": 109,
      "ê": 110,
      "ë": 111,
      "ì": 112,
      "í": 113,
      "î": 114,
      "ï": 115,
      "ð": 116,
      "ñ": 117,
      "ò": 118,
      "ó": 119,
      "ô": 120,
      "õ": 121,
      "ö": 122,
      "÷": 123,
      "ø": 124,
      "ù": 125,
      "ú": 126,
      "û": 127,
      "ü": 128,
      "ý": 129,
      "þ": 130,
      "ÿ": 131,
      "ā": 132,
      "ă": 133,
      "ą": 134,
      "ć": 135,
      "ĉ": 136,
      "ċ": 137,
      "č": 138,
      "ď": 139,
      "đ": 140,
      "ē": 141,
      "ĕ": 142,
      "ė": 143,
      "ę": 144,
      "ě": 145,
      "ĝ": 146,
      "ğ": 147,
      "ġ": 148,
      "ĥ": 149,
      "ħ": 150,
      "ĩ": 151,
      "ī": 152,
      "ĭ": 153,
      "į": 154,
      "ı": 155,
      "ķ": 156,
      "ĺ": 157,
      "ļ": 158,
      "ľ": 159,
      "ł": 160,
      "ń": 161,
      "ņ": 162,
      "ň": 163,
      "ŋ": 164,
      "ō": 165,
      "ŏ": 166,
      "ő": 167,
      "œ": 168,
      "ŕ": 169,
      "ř": 170,
      "ś": 171,
      "ş": 172,
      "š": 173,
      "ţ": 174,
      "ť": 175,
      "ũ": 176,
      "ū": 177,
      "ŭ": 178,
      "ů": 179,
      "ű": 180,
      "ų": 181,
      "ŵ": 182,
      "ŷ": 183,
      "ź": 184,
      "ż": 185,
      "ž": 186,
      "ſ": 187,
      "ƒ": 188,
      "ơ": 189,
      "ư": 190,
      "ƶ": 191,
      "ƿ": 192,
      "ǀ": 193,
      "ǁ": 194,
      "ǃ": 195,
      "ǎ": 196,
      "ǐ": 197,
      "ǒ": 198,
      "ǔ": 199,
      "ǚ": 200,
      "ǝ": 201,
      "ǧ": 202,
      "ǫ": 203,
      "ǭ": 204,
      "ǰ": 205,
      "ș": 206,
      "ț": 207,
      "ȝ": 208,
      "ȟ": 209,
      "ȳ": 210,
      "ȴ": 211,
      "ɂ": 212,
      "ɐ": 213,
      "ɑ": 214,
      "ɒ": 215,
      "ɔ": 216,
      "ɕ": 217,
      "ɖ": 218,
      "ə": 219,
      "ɛ": 220,
      "ɜ": 221,
      "ɟ": 222,
      "ɡ": 223,
      "ɣ": 224,
      "ɤ": 225,
      "ɦ": 226,
      "ɨ": 227,
      "ɪ": 228,
      "ɫ": 229,
      "ɬ": 230,
      "ɯ": 231,
      "ɲ": 232,
      "ɳ": 233,
      "ɵ": 234,
      "ɹ": 235,
      "ɽ": 236,
      "ɾ": 237,
      "ʀ": 238,
      "ʁ": 239,
      "ʂ": 240,
      "ʃ": 241,
      "ʈ": 242,
      "ʉ": 243,
      "ʊ": 244,
      "ʋ": 245,
      "ʌ": 246,
      "ʎ": 247,
      "ʏ": 248,
      "ʑ": 249,
      "ʒ": 250,
      "ʔ": 251,
      "ʕ": 252,
      "ʣ": 253,
      "ʦ": 254,
      "ʧ": 255,
      "ʰ": 256,
      "ʲ": 257,
      "ʷ": 258,
      "ʹ": 259,
      "ʻ": 260,
      "ʼ": 261,
      "ʾ": 262,
      "ʿ": 263,
      "ˀ": 264,
      "ˁ": 265,
      "ˈ": 266,
      "ˌ": 267,
      "ː": 268,
      "˜": 269,
      "ˠ": 270,
      "ˡ": 271,
      "˺": 272,
      "̀": 273,
      "́": 274,
      "̂": 275,
      "̃": 276,
      "̄": 277,
      "̅": 278,
      "̇": 279,
      "̈": 280,
      "̊": 281,
      "̌": 282,
      "̍": 283,
      "̝": 284,
      "̞": 285,
      "̟": 286,
      "̠": 287,
      "̥": 288,
      "̧": 289,
      "̩": 290,
      "̪": 291,
      "̯": 292,
      "̰": 293,
      "̱": 294,
      "̲": 295,
      "̺": 296,
      "͇": 297,
      "͑": 298,
      "͡": 299,
      "ͳ": 300,
      "͵": 301,
      "ΐ": 302,
      "ά": 303,
      "έ": 304,
      "ή": 305,
      "ί": 306,
      "α": 307,
      "β": 308,
      "γ": 309,
      "δ": 310,
      "ε": 311,
      "ζ": 312,
      "η": 313,
      "θ": 314,
      "ι": 315,
      "κ": 316,
      "λ": 317,
      "μ": 318,
      "ν": 319,
      "ξ": 320,
      "ο": 321,
      "π": 322,
      "ρ": 323,
      "ς": 324,
      "σ": 325,
      "τ": 326,
      "υ": 327,
      "φ": 328,
      "χ": 329,
      "ψ": 330,
      "ω": 331,
      "ϊ": 332,
      "ό": 333,
      "ύ": 334,
      "ώ": 335,
      "ϑ": 336,
      "ϕ": 337,
      "ϙ": 338,
      "ϛ": 339,
      "ϝ": 340,
      "ϟ": 341,
      "ϡ": 342,
      "ϱ": 343,
      "ϲ": 344,
      "ϻ": 345,
      "а": 346,
      "б": 347,
      "в": 348,
      "г": 349,
      "д": 350,
      "е": 351,
      "ж": 352,
      "з": 353,
      "и": 354,
      "й": 355,
      "к": 356,
      "л": 357,
      "м": 358,
      "н": 359,
      "о": 360,
      "п": 361,
      "р": 362,
      "с": 363,
      "т": 364,
      "у": 365,
      "ф": 366,
      "х": 367,
      "ц": 368,
      "ч": 369,
      "ш": 370,
      "щ": 371,
      "ъ": 372,
      "ы": 373,
      "ь": 374,
      "э": 375,
      "ю": 376,
      "я": 377,
      "ё": 378,
      "ѓ": 379,
      "і": 380,
      "ї": 381,
      "ј": 382,
      "љ": 383,
      "ў": 384,
      "ѣ": 385,
      "ѱ": 386,
      "ҁ": 387,
      "ғ": 388,
      "җ": 389,
      "ҙ": 390,
      "қ": 391,
      "ҡ": 392,
      "ң": 393,
      "ү": 394,
      "һ": 395,
      "ӏ": 396,
      "ӑ": 397,
      "ӕ": 398,
      "ө": 399,
      "ա": 400,
      "բ": 401,
      "գ": 402,
      "դ": 403,
      "ե": 404,
      "զ": 405,
      "թ": 406,
      "ժ": 407,
      "ի": 408,
      "լ": 409,
      "խ": 410,
      "ծ": 411,
      "կ": 412,
      "հ": 413,
      "ձ": 414,
      "ղ": 415,
      "մ": 416,
      "յ": 417,
      "ն": 418,
      "շ": 419,
      "ո": 420,
      "պ": 421,
      "ջ": 422,
      "ռ": 423,
      "ս": 424,
      "վ": 425,
      "տ": 426,
      "ր": 427,
      "ւ": 428,
      "ք": 429,
      "ְ": 430,
      "ֱ": 431,
      "ֲ": 432,
      "ִ": 433,
      "ֵ": 434,
      "ֶ": 435,
      "ַ": 436,
      "ָ": 437,
      "ֹ": 438,
      "ֻ": 439,
      "ּ": 440,
      "ֽ": 441,
      "־": 442,
      "ֿ": 443,
      "ׁ": 444,
      "ׂ": 445,
      "א": 446,
      "ב": 447,
      "ג": 448,
      "ד": 449,
      "ה": 450,
      "ו": 451,
      "ז": 452,
      "ח": 453,
      "ט": 454,
      "י": 455,
      "ך": 456,
      "כ": 457,
      "ל": 458,
      "ם": 459,
      "מ": 460,
      "ן": 461,
      "נ": 462,
      "ס": 463,
      "ע": 464,
      "ף": 465,
      "פ": 466,
      "ץ": 467,
      "צ": 468,
      "ק": 469,
      "ר": 470,
      "ש": 471,
      "ת": 472,
      "؋": 473,
      "ء": 474,
      "آ": 475,
      "أ": 476,
      "ؤ": 477,
      "إ": 478,
      "ئ": 479,
      "ا": 480,
      "ب": 481,
      "ة": 482,
      "ت": 483,
      "ث": 484,
      "ج": 485,
      "ح": 486,
      "خ": 487,
      "د": 488,
      "ذ": 489,
      "ر": 490,
      "ز": 491,
      "س": 492,
      "ش": 493,
      "ص": 494,
      "ض": 495,
      "ط": 496,
      "ظ": 497,
      "ع": 498,
      "غ": 499,
      "ـ": 500,
      "ف": 501,
      "ق": 502,
      "ك": 503,
      "ل": 504,
      "م": 505,
      "ن": 506,
      "ه": 507,
      "و": 508,
      "ى": 509,
      "ي": 510,
      "ً": 511,
      "ٍ": 512,
      "َ": 513,
      "ُ": 514,
      "ِ": 515,
      "ّ": 516,
      "ْ": 517,
      "ٔ": 518,
      "٦": 519,
      "ٰ": 520,
      "پ": 521,
      "چ": 522,
      "ژ": 523,
      "ښ": 524,
      "ڤ": 525,
      "ک": 526,
      "ڪ": 527,
      "ڬ": 528,
      "ڭ": 529,
      "گ": 530,
      "ھ": 531,
      "ہ": 532,
      "ۇ": 533,
      "ۈ": 534,
      "ی": 535,
      "ۍ": 536,
      "۱": 537,
      "۷": 538,
      "۹": 539,
      "ܐ": 540,
      "ܒ": 541,
      "ܓ": 542,
      "ܕ": 543,
      "ܘ": 544,
      "ܙ": 545,
      "ܚ": 546,
      "ܛ": 547,
      "ܝ": 548,
      "ܟ": 549,
      "ܠ": 550,
      "ܡ": 551,
      "ܢ": 552,
      "ܣ": 553,
      "ܥ": 554,
      "ܨ": 555,
      "ܩ": 556,
      "ܪ": 557,
      "ܫ": 558,
      "އ": 559,
      "މ": 560,
      "ލ": 561,
      "ސ": 562,
      "ޤ": 563,
      "ަ": 564,
      "ާ": 565,
      "ީ": 566,
      "ު": 567,
      "ެ": 568,
      "ް": 569,
      "ߌ": 570,
      "ߍ": 571,
      "ߖ": 572,
      "ߣ": 573,
      "߫": 574,
      "߬": 575,
      "ँ": 576,
      "ं": 577,
      "ः": 578,
      "अ": 579,
      "आ": 580,
      "इ": 581,
      "ई": 582,
      "उ": 583,
      "क": 584,
      "ग": 585,
      "ङ": 586,
      "च": 587,
      "ज": 588,
      "झ": 589,
      "ट": 590,
      "ड": 591,
      "ण": 592,
      "त": 593,
      "थ": 594,
      "द": 595,
      "ध": 596,
      "न": 597,
      "प": 598,
      "फ": 599,
      "ब": 600,
      "भ": 601,
      "म": 602,
      "य": 603,
      "र": 604,
      "ल": 605,
      "ळ": 606,
      "व": 607,
      "श": 608,
      "ष": 609,
      "स": 610,
      "ह": 611,
      "़": 612,
      "ा": 613,
      "ि": 614,
      "ी": 615,
      "ु": 616,
      "ू": 617,
      "ृ": 618,
      "े": 619,
      "ै": 620,
      "ो": 621,
      "ौ": 622,
      "्": 623,
      "ং": 624,
      "অ": 625,
      "আ": 626,
      "ই": 627,
      "এ": 628,
      "ও": 629,
      "ক": 630,
      "খ": 631,
      "গ": 632,
      "ঙ": 633,
      "চ": 634,
      "জ": 635,
      "ঞ": 636,
      "ট": 637,
      "ড": 638,
      "ণ": 639,
      "ত": 640,
      "থ": 641,
      "দ": 642,
      "ধ": 643,
      "ন": 644,
      "প": 645,
      "ফ": 646,
      "ব": 647,
      "ভ": 648,
      "ম": 649,
      "য": 650,
      "র": 651,
      "ল": 652,
      "শ": 653,
      "ষ": 654,
      "স": 655,
      "হ": 656,
      "়": 657,
      "া": 658,
      "ি": 659,
      "ী": 660,
      "ু": 661,
      "ূ": 662,
      "ে": 663,
      "ো": 664,
      "্": 665,
      "ਂ": 666,
      "ਆ": 667,
      "ਘ": 668,
      "ਜ": 669,
      "ਣ": 670,
      "ਦ": 671,
      "ਧ": 672,
      "ਨ": 673,
      "ਪ": 674,
      "ਬ": 675,
      "ਮ": 676,
      "ਲ": 677,
      "ਵ": 678,
      "ਸ": 679,
      "ਹ": 680,
      "ਾ": 681,
      "ਿ": 682,
      "ੀ": 683,
      "ੁ": 684,
      "ੋ": 685,
      "ੰ": 686,
      "ੱ": 687,
      "ગ": 688,
      "જ": 689,
      "ણ": 690,
      "ત": 691,
      "ધ": 692,
      "ય": 693,
      "ર": 694,
      "લ": 695,
      "વ": 696,
      "સ": 697,
      "ા": 698,
      "િ": 699,
      "ુ": 700,
      "ે": 701,
      "્": 702,
      "அ": 703,
      "இ": 704,
      "க": 705,
      "ங": 706,
      "ச": 707,
      "ஜ": 708,
      "ட": 709,
      "ண": 710,
      "த": 711,
      "ந": 712,
      "ன": 713,
      "ப": 714,
      "ம": 715,
      "ய": 716,
      "ர": 717,
      "ல": 718,
      "வ": 719,
      "ஸ": 720,
      "ா": 721,
      "ி": 722,
      "ீ": 723,
      "ு": 724,
      "ூ": 725,
      "ே": 726,
      "ை": 727,
      "ோ": 728,
      "்": 729,
      "ం": 730,
      "ఆ": 731,
      "క": 732,
      "జ": 733,
      "డ": 734,
      "ణ": 735,
      "త": 736,
      "ద": 737,
      "ధ": 738,
      "ప": 739,
      "మ": 740,
      "ర": 741,
      "శ": 742,
      "ష": 743,
      "ి": 744,
      "ు": 745,
      "ూ": 746,
      "ృ": 747,
      "ే": 748,
      "్": 749,
      "ಂ": 750,
      "ಕ": 751,
      "ಗ": 752,
      "ಡ": 753,
      "ಬ": 754,
      "ಮ": 755,
      "ರ": 756,
      "ಲ": 757,
      "ಳ": 758,
      "ು": 759,
      "ೂ": 760,
      "ೆ": 761,
      "್": 762,
      "ം": 763,
      "അ": 764,
      "ക": 765,
      "ച": 766,
      "ട": 767,
      "ണ": 768,
      "ത": 769,
      "ഭ": 770,
      "ഴ": 771,
      "ശ": 772,
      "സ": 773,
      "ാ": 774,
      "ി": 775,
      "ോ": 776,
      "്": 777,
      "ං": 778,
      "ක": 779,
      "ග": 780,
      "ජ": 781,
      "ට": 782,
      "ඩ": 783,
      "ණ": 784,
      "ත": 785,
      "ද": 786,
      "ධ": 787,
      "න": 788,
      "ප": 789,
      "භ": 790,
      "ම": 791,
      "ය": 792,
      "ර": 793,
      "ල": 794,
      "ව": 795,
      "ශ": 796,
      "ස": 797,
      "හ": 798,
      "්": 799,
      "ා": 800,
      "ි": 801,
      "ී": 802,
      "ු": 803,
      "ේ": 804,
      "ො": 805,
      "ෝ": 806,
      "ෞ": 807,
      "ก": 808,
      "ค": 809,
      "ง": 810,
      "จ": 811,
      "ช": 812,
      "ซ": 813,
      "ญ": 814,
      "ฐ": 815,
      "ณ": 816,
      "ด": 817,
      "ต": 818,
      "ท": 819,
      "ธ": 820,
      "น": 821,
      "บ": 822,
      "ป": 823,
      "พ": 824,
      "ภ": 825,
      "ม": 826,
      "ย": 827,
      "ร": 828,
      "ล": 829,
      "ว": 830,
      "ส": 831,
      "ห": 832,
      "อ": 833,
      "ะ": 834,
      "ั": 835,
      "า": 836,
      "ิ": 837,
      "ี": 838,
      "ุ": 839,
      "ู": 840,
      "เ": 841,
      "โ": 842,
      "ไ": 843,
      "่": 844,
      "้": 845,
      "์": 846,
      "ກ": 847,
      "ຂ": 848,
      "ຄ": 849,
      "ງ": 850,
      "ຈ": 851,
      "ຊ": 852,
      "ຍ": 853,
      "ດ": 854,
      "ຕ": 855,
      "ຖ": 856,
      "ທ": 857,
      "ນ": 858,
      "ບ": 859,
      "ປ": 860,
      "ຜ": 861,
      "ຝ": 862,
      "ພ": 863,
      "ມ": 864,
      "ລ": 865,
      "ວ": 866,
      "ສ": 867,
      "ຫ": 868,
      "ອ": 869,
      "ຮ": 870,
      "ະ": 871,
      "ັ": 872,
      "າ": 873,
      "ິ": 874,
      "ີ": 875,
      "ົ": 876,
      "ຽ": 877,
      "ເ": 878,
      "ແ": 879,
      "ໃ": 880,
      "ໄ": 881,
      "་": 882,
      "ང": 883,
      "ཆ": 884,
      "ཐ": 885,
      "ད": 886,
      "པ": 887,
      "ཕ": 888,
      "བ": 889,
      "མ": 890,
      "འ": 891,
      "ས": 892,
      "ི": 893,
      "ུ": 894,
      "ེ": 895,
      "ྱ": 896,
      "က": 897,
      "င": 898,
      "စ": 899,
      "ည": 900,
      "တ": 901,
      "ထ": 902,
      "ဓ": 903,
      "န": 904,
      "ပ": 905,
      "ဗ": 906,
      "ဘ": 907,
      "မ": 908,
      "ရ": 909,
      "သ": 910,
      "ာ": 911,
      "ိ": 912,
      "ု": 913,
      "ေ": 914,
      "ံ": 915,
      "း": 916,
      "္": 917,
      "်": 918,
      "ြ": 919,
      "ა": 920,
      "ბ": 921,
      "გ": 922,
      "დ": 923,
      "ე": 924,
      "ვ": 925,
      "ზ": 926,
      "თ": 927,
      "ი": 928,
      "კ": 929,
      "ლ": 930,
      "მ": 931,
      "ნ": 932,
      "ო": 933,
      "ჟ": 934,
      "რ": 935,
      "ს": 936,
      "ტ": 937,
      "უ": 938,
      "ფ": 939,
      "ქ": 940,
      "ყ": 941,
      "შ": 942,
      "ჩ": 943,
      "ც": 944,
      "ძ": 945,
      "ჭ": 946,
      "ხ": 947,
      "ህ": 948,
      "ለ": 949,
      "ሊ": 950,
      "ላ": 951,
      "ል": 952,
      "ሕ": 953,
      "መ": 954,
      "ማ": 955,
      "ም": 956,
      "ሞ": 957,
      "ሥ": 958,
      "ረ": 959,
      "ሩ": 960,
      "ሪ": 961,
      "ራ": 962,
      "ር": 963,
      "ሮ": 964,
      "ሰ": 965,
      "ሲ": 966,
      "ሳ": 967,
      "ሴ": 968,
      "ስ": 969,
      "ሻ": 970,
      "ቂ": 971,
      "ቅ": 972,
      "ቆ": 973,
      "በ": 974,
      "ቡ": 975,
      "ባ": 976,
      "ቤ": 977,
      "ብ": 978,
      "ቦ": 979,
      "ተ": 980,
      "ቲ": 981,
      "ታ": 982,
      "ት": 983,
      "ቶ": 984,
      "ቺ": 985,
      "ች": 986,
      "ኃ": 987,
      "ነ": 988,
      "ኑ": 989,
      "ና": 990,
      "ን": 991,
      "ኖ": 992,
      "ኛ": 993,
      "አ": 994,
      "ኢ": 995,
      "ኣ": 996,
      "ኤ": 997,
      "እ": 998,
      "ኦ": 999,
      "ከ": 1000,
      "ኩ": 1001,
      "ክ": 1002,
      "ኵ": 1003,
      "ወ": 1004,
      "ዊ": 1005,
      "ዋ": 1006,
      "ዔ": 1007,
      "ዕ": 1008,
      "ዜ": 1009,
      "ዝ": 1010,
      "የ": 1011,
      "ያ": 1012,
      "ይ": 1013,
      "ዮ": 1014,
      "ደ": 1015,
      "ዲ": 1016,
      "ዳ": 1017,
      "ዴ": 1018,
      "ድ": 1019,
      "ዶ": 1020,
      "ጀ": 1021,
      "ጊ": 1022,
      "ጋ": 1023,
      "ግ": 1024,
      "ጠ": 1025,
      "ጥ": 1026,
      "ጵ": 1027,
      "ፀ": 1028,
      "ፃ": 1029,
      "ፅ": 1030,
      "ፈ": 1031,
      "ፊ": 1032,
      "ፋ": 1033,
      "ፌ": 1034,
      "ፍ": 1035,
      "ፐ": 1036,
      "፡": 1037,
      "።": 1038,
      "ᐃ": 1039,
      "ᐊ": 1040,
      "ᑦ": 1041,
      "ᒡ": 1042,
      "ᓄ": 1043,
      "ᓇ": 1044,
      "ᓗ": 1045,
      "ᓯ": 1046,
      "ᕗ": 1047,
      "ᖅ": 1048,
      "ᙶ": 1049,
      "ᚠ": 1050,
      "ᚢ": 1051,
      "ᚦ": 1052,
      "ᚨ": 1053,
      "ᚱ": 1054,
      "ᚴ": 1055,
      "ក": 1056,
      "ខ": 1057,
      "គ": 1058,
      "ង": 1059,
      "ច": 1060,
      "ជ": 1061,
      "ណ": 1062,
      "ត": 1063,
      "ន": 1064,
      "ព": 1065,
      "ម": 1066,
      "រ": 1067,
      "ស": 1068,
      "ហ": 1069,
      "ឡ": 1070,
      "អ": 1071,
      "ា": 1072,
      "ិ": 1073,
      "ុ": 1074,
      "ែ": 1075,
      "ះ": 1076,
      "្": 1077,
      "ḇ": 1078,
      "ḍ": 1079,
      "ḏ": 1080,
      "ḓ": 1081,
      "ḕ": 1082,
      "ḗ": 1083,
      "ḡ": 1084,
      "ḥ": 1085,
      "ḫ": 1086,
      "ḳ": 1087,
      "ḷ": 1088,
      "ḽ": 1089,
      "ṁ": 1090,
      "ṃ": 1091,
      "ṅ": 1092,
      "ṇ": 1093,
      "ṉ": 1094,
      "ṋ": 1095,
      "ṓ": 1096,
      "ṗ": 1097,
      "ṛ": 1098,
      "ṣ": 1099,
      "ṭ": 1100,
      "ṯ": 1101,
      "ṱ": 1102,
      "ṹ": 1103,
      "ṿ": 1104,
      "ẁ": 1105,
      "ẓ": 1106,
      "ẖ": 1107,
      "ạ": 1108,
      "ả": 1109,
      "ấ": 1110,
      "ầ": 1111,
      "ẩ": 1112,
      "ậ": 1113,
      "ắ": 1114,
      "ằ": 1115,
      "ẵ": 1116,
      "ẹ": 1117,
      "ẽ": 1118,
      "ế": 1119,
      "ể": 1120,
      "ễ": 1121,
      "ệ": 1122,
      "ị": 1123,
      "ọ": 1124,
      "ố": 1125,
      "ồ": 1126,
      "ộ": 1127,
      "ớ": 1128,
      "ờ": 1129,
      "ợ": 1130,
      "ụ": 1131,
      "ủ": 1132,
      "ứ": 1133,
      "ừ": 1134,
      "ữ": 1135,
      "ự": 1136,
      "ỳ": 1137,
      "ỹ": 1138,
      "ἀ": 1139,
      "ἁ": 1140,
      "ἄ": 1141,
      "ἅ": 1142,
      "ἐ": 1143,
      "ἑ": 1144,
      "ἒ": 1145,
      "ἔ": 1146,
      "ἕ": 1147,
      "ἠ": 1148,
      "ἡ": 1149,
      "ἤ": 1150,
      "ἥ": 1151,
      "ἦ": 1152,
      "ἰ": 1153,
      "ἱ": 1154,
      "ἴ": 1155,
      "ἵ": 1156,
      "ἶ": 1157,
      "ἷ": 1158,
      "ὀ": 1159,
      "ὁ": 1160,
      "ὄ": 1161,
      "ὅ": 1162,
      "ὐ": 1163,
      "ὑ": 1164,
      "ὔ": 1165,
      "ὕ": 1166,
      "ὖ": 1167,
      "ὠ": 1168,
      "ὤ": 1169,
      "ὰ": 1170,
      "ὴ": 1171,
      "ὶ": 1172,
      "ὸ": 1173,
      "ὺ": 1174,
      "ᾠ": 1175,
      "ᾰ": 1176,
      "ᾱ": 1177,
      "ᾶ": 1178,
      "ῆ": 1179,
      "ῐ": 1180,
      "ῑ": 1181,
      "ῖ": 1182,
      "ῠ": 1183,
      "ῥ": 1184,
      "ῦ": 1185,
      "ῳ": 1186,
      "ῴ": 1187,
      "ῶ": 1188,
      "ῷ": 1189,
      "‐": 1190,
      "‑": 1191,
      "‒": 1192,
      "–": 1193,
      "—": 1194,
      "―": 1195,
      "‘": 1196,
      "’": 1197,
      "‚": 1198,
      "“": 1199,
      "”": 1200,
      "„": 1201,
      "‟": 1202,
      "†": 1203,
      "‡": 1204,
      "•": 1205,
      "…": 1206,
      "‰": 1207,
      "′": 1208,
      "″": 1209,
      "‹": 1210,
      "›": 1211,
      "⁂": 1212,
      "⁴": 1213,
      "₁": 1214,
      "₂": 1215,
      "₡": 1216,
      "₢": 1217,
      "₦": 1218,
      "₧": 1219,
      "₨": 1220,
      "₩": 1221,
      "₪": 1222,
      "€": 1223,
      "₲": 1224,
      "₵": 1225,
      "₹": 1226,
      "℃": 1227,
      "ℓ": 1228,
      "ℕ": 1229,
      "№": 1230,
      "ℝ": 1231,
      "℞": 1232,
      "™": 1233,
      "℧": 1234,
      "⅓": 1235,
      "ⅳ": 1236,
      "←": 1237,
      "→": 1238,
      "↔": 1239,
      "↵": 1240,
      "⇀": 1241,
      "⇄": 1242,
      "⇆": 1243,
      "⇌": 1244,
      "⇒": 1245,
      "⇔": 1246,
      "∀": 1247,
      "∂": 1248,
      "∃": 1249,
      "∆": 1250,
      "∈": 1251,
      "∉": 1252,
      "−": 1253,
      "∗": 1254,
      "√": 1255,
      "∞": 1256,
      "∥": 1257,
      "∧": 1258,
      "∨": 1259,
      "∪": 1260,
      "∴": 1261,
      "≈": 1262,
      "≠": 1263,
      "≡": 1264,
      "≤": 1265,
      "≥": 1266,
      "⊂": 1267,
      "⊆": 1268,
      "⊦": 1269,
      "⋅": 1270,
      "─": 1271,
      "▄": 1272,
      "▪": 1273,
      "►": 1274,
      "◊": 1275,
      "◌": 1276,
      "●": 1277,
      "★": 1278,
      "☆": 1279,
      "☉": 1280,
      "☤": 1281,
      "☹": 1282,
      "☺": 1283,
      "♀": 1284,
      "♂": 1285,
      "♇": 1286,
      "♈": 1287,
      "♎": 1288,
      "♏": 1289,
      "♒": 1290,
      "♗": 1291,
      "♘": 1292,
      "♙": 1293,
      "♟": 1294,
      "♠": 1295,
      "♡": 1296,
      "♣": 1297,
      "♥": 1298,
      "♦": 1299,
      "♩": 1300,
      "♪": 1301,
      "♫": 1302,
      "♭": 1303,
      "♯": 1304,
      "✌": 1305,
      "✔": 1306,
      "✗": 1307,
      "❤": 1308,
      "➞": 1309,
      "➵": 1310,
      "⟨": 1311,
      "⟩": 1312,
      "⦁": 1313,
      "ⲉ": 1314,
      "ⲟ": 1315,
      "ⲡ": 1316,
      "ⲣ": 1317,
      "ⲥ": 1318,
      "ⲧ": 1319,
      "ⴰ": 1320,
      "ⴻ": 1321,
      "ⵉ": 1322,
      "ⵎ": 1323,
      "ⵏ": 1324,
      "ⵓ": 1325,
      "ⵔ": 1326,
      "ⵖ": 1327,
      "ⵗ": 1328,
      "ⵙ": 1329,
      "ⵜ": 1330,
      "ⵣ": 1331,
      "⸱": 1332,
      "あ": 1333,
      "ぃ": 1334,
      "い": 1335,
      "う": 1336,
      "え": 1337,
      "お": 1338,
      "か": 1339,
      "が": 1340,
      "き": 1341,
      "ぎ": 1342,
      "く": 1343,
      "け": 1344,
      "こ": 1345,
      "ご": 1346,
      "さ": 1347,
      "ざ": 1348,
      "し": 1349,
      "じ": 1350,
      "す": 1351,
      "せ": 1352,
      "た": 1353,
      "だ": 1354,
      "ち": 1355,
      "つ": 1356,
      "て": 1357,
      "と": 1358,
      "ど": 1359,
      "な": 1360,
      "に": 1361,
      "ぬ": 1362,
      "の": 1363,
      "は": 1364,
      "ば": 1365,
      "ひ": 1366,
      "び": 1367,
      "ふ": 1368,
      "ぶ": 1369,
      "べ": 1370,
      "ほ": 1371,
      "ま": 1372,
      "み": 1373,
      "ゃ": 1374,
      "や": 1375,
      "ゅ": 1376,
      "ゆ": 1377,
      "ょ": 1378,
      "よ": 1379,
      "ら": 1380,
      "り": 1381,
      "る": 1382,
      "れ": 1383,
      "ろ": 1384,
      "わ": 1385,
      "を": 1386,
      "ん": 1387,
      "ア": 1388,
      "ィ": 1389,
      "イ": 1390,
      "ウ": 1391,
      "ェ": 1392,
      "エ": 1393,
      "ォ": 1394,
      "オ": 1395,
      "カ": 1396,
      "キ": 1397,
      "ギ": 1398,
      "ク": 1399,
      "グ": 1400,
      "コ": 1401,
      "ゴ": 1402,
      "サ": 1403,
      "ザ": 1404,
      "シ": 1405,
      "ジ": 1406,
      "ス": 1407,
      "ズ": 1408,
      "セ": 1409,
      "ゼ": 1410,
      "タ": 1411,
      "ダ": 1412,
      "チ": 1413,
      "ッ": 1414,
      "ツ": 1415,
      "テ": 1416,
      "デ": 1417,
      "ト": 1418,
      "ド": 1419,
      "ナ": 1420,
      "ニ": 1421,
      "ネ": 1422,
      "ノ": 1423,
      "ハ": 1424,
      "バ": 1425,
      "パ": 1426,
      "ビ": 1427,
      "ピ": 1428,
      "フ": 1429,
      "ブ": 1430,
      "プ": 1431,
      "ヘ": 1432,
      "ペ": 1433,
      "ホ": 1434,
      "ボ": 1435,
      "ポ": 1436,
      "マ": 1437,
      "ミ": 1438,
      "メ": 1439,
      "モ": 1440,
      "ャ": 1441,
      "ヤ": 1442,
      "ュ": 1443,
      "ョ": 1444,
      "ヨ": 1445,
      "ラ": 1446,
      "リ": 1447,
      "ル": 1448,
      "レ": 1449,
      "ロ": 1450,
      "ワ": 1451,
      "ン": 1452,
      "ヶ": 1453,
      "・": 1454,
      "ー": 1455,
      "ㅇ": 1456,
      "㐎": 1457,
      "一": 1458,
      "丁": 1459,
      "七": 1460,
      "三": 1461,
      "上": 1462,
      "下": 1463,
      "不": 1464,
      "世": 1465,
      "丘": 1466,
      "业": 1467,
      "东": 1468,
      "两": 1469,
      "並": 1470,
      "中": 1471,
      "串": 1472,
      "丸": 1473,
      "丹": 1474,
      "主": 1475,
      "乃": 1476,
      "久": 1477,
      "么": 1478,
      "之": 1479,
      "乗": 1480,
      "乘": 1481,
      "九": 1482,
      "乡": 1483,
      "书": 1484,
      "亀": 1485,
      "予": 1486,
      "争": 1487,
      "事": 1488,
      "二": 1489,
      "五": 1490,
      "井": 1491,
      "交": 1492,
      "亥": 1493,
      "京": 1494,
      "人": 1495,
      "仁": 1496,
      "今": 1497,
      "仔": 1498,
      "仙": 1499,
      "代": 1500,
      "令": 1501,
      "以": 1502,
      "们": 1503,
      "仮": 1504,
      "任": 1505,
      "份": 1506,
      "伊": 1507,
      "伍": 1508,
      "伎": 1509,
      "会": 1510,
      "伝": 1511,
      "传": 1512,
      "伯": 1513,
      "佐": 1514,
      "何": 1515,
      "佛": 1516,
      "作": 1517,
      "你": 1518,
      "佳": 1519,
      "侠": 1520,
      "俊": 1521,
      "保": 1522,
      "信": 1523,
      "俣": 1524,
      "修": 1525,
      "倉": 1526,
      "倭": 1527,
      "備": 1528,
      "像": 1529,
      "僕": 1530,
      "儺": 1531,
      "元": 1532,
      "先": 1533,
      "光": 1534,
      "克": 1535,
      "児": 1536,
      "党": 1537,
      "入": 1538,
      "內": 1539,
      "全": 1540,
      "兩": 1541,
      "八": 1542,
      "公": 1543,
      "六": 1544,
      "兰": 1545,
      "共": 1546,
      "关": 1547,
      "兵": 1548,
      "具": 1549,
      "典": 1550,
      "内": 1551,
      "円": 1552,
      "农": 1553,
      "冬": 1554,
      "冰": 1555,
      "准": 1556,
      "出": 1557,
      "函": 1558,
      "刀": 1559,
      "分": 1560,
      "刈": 1561,
      "划": 1562,
      "列": 1563,
      "刚": 1564,
      "別": 1565,
      "利": 1566,
      "别": 1567,
      "制": 1568,
      "刺": 1569,
      "前": 1570,
      "剛": 1571,
      "剣": 1572,
      "劃": 1573,
      "劇": 1574,
      "劉": 1575,
      "功": 1576,
      "加": 1577,
      "动": 1578,
      "助": 1579,
      "効": 1580,
      "勇": 1581,
      "動": 1582,
      "勘": 1583,
      "務": 1584,
      "勝": 1585,
      "勞": 1586,
      "勢": 1587,
      "化": 1588,
      "北": 1589,
      "匹": 1590,
      "区": 1591,
      "區": 1592,
      "十": 1593,
      "千": 1594,
      "半": 1595,
      "卍": 1596,
      "华": 1597,
      "卐": 1598,
      "南": 1599,
      "博": 1600,
      "占": 1601,
      "卡": 1602,
      "卦": 1603,
      "印": 1604,
      "历": 1605,
      "厚": 1606,
      "原": 1607,
      "厦": 1608,
      "县": 1609,
      "参": 1610,
      "參": 1611,
      "及": 1612,
      "取": 1613,
      "受": 1614,
      "口": 1615,
      "古": 1616,
      "可": 1617,
      "台": 1618,
      "史": 1619,
      "号": 1620,
      "司": 1621,
      "各": 1622,
      "合": 1623,
      "吉": 1624,
      "名": 1625,
      "后": 1626,
      "向": 1627,
      "君": 1628,
      "吳": 1629,
      "吴": 1630,
      "吸": 1631,
      "吹": 1632,
      "吾": 1633,
      "呂": 1634,
      "呉": 1635,
      "员": 1636,
      "周": 1637,
      "味": 1638,
      "呼": 1639,
      "命": 1640,
      "咋": 1641,
      "和": 1642,
      "咸": 1643,
      "哈": 1644,
      "哥": 1645,
      "哲": 1646,
      "唄": 1647,
      "唐": 1648,
      "唱": 1649,
      "商": 1650,
      "善": 1651,
      "喜": 1652,
      "四": 1653,
      "回": 1654,
      "因": 1655,
      "団": 1656,
      "困": 1657,
      "囲": 1658,
      "围": 1659,
      "国": 1660,
      "國": 1661,
      "圍": 1662,
      "園": 1663,
      "圓": 1664,
      "土": 1665,
      "圭": 1666,
      "地": 1667,
      "场": 1668,
      "坂": 1669,
      "均": 1670,
      "坊": 1671,
      "坏": 1672,
      "坐": 1673,
      "块": 1674,
      "坡": 1675,
      "型": 1676,
      "垣": 1677,
      "城": 1678,
      "域": 1679,
      "埠": 1680,
      "培": 1681,
      "堂": 1682,
      "場": 1683,
      "堺": 1684,
      "塑": 1685,
      "塔": 1686,
      "塘": 1687,
      "塚": 1688,
      "塩": 1689,
      "境": 1690,
      "増": 1691,
      "壤": 1692,
      "士": 1693,
      "壱": 1694,
      "売": 1695,
      "壳": 1696,
      "変": 1697,
      "夏": 1698,
      "夕": 1699,
      "外": 1700,
      "多": 1701,
      "夜": 1702,
      "夢": 1703,
      "大": 1704,
      "天": 1705,
      "太": 1706,
      "夫": 1707,
      "央": 1708,
      "夯": 1709,
      "头": 1710,
      "奈": 1711,
      "奉": 1712,
      "奥": 1713,
      "女": 1714,
      "好": 1715,
      "妖": 1716,
      "妙": 1717,
      "妻": 1718,
      "姚": 1719,
      "姫": 1720,
      "姿": 1721,
      "婦": 1722,
      "嫘": 1723,
      "子": 1724,
      "字": 1725,
      "孙": 1726,
      "孝": 1727,
      "季": 1728,
      "学": 1729,
      "孫": 1730,
      "學": 1731,
      "宁": 1732,
      "宇": 1733,
      "守": 1734,
      "安": 1735,
      "宋": 1736,
      "宍": 1737,
      "宗": 1738,
      "宙": 1739,
      "定": 1740,
      "宜": 1741,
      "宝": 1742,
      "室": 1743,
      "宮": 1744,
      "宰": 1745,
      "家": 1746,
      "宿": 1747,
      "寄": 1748,
      "寇": 1749,
      "富": 1750,
      "寒": 1751,
      "寝": 1752,
      "寧": 1753,
      "寺": 1754,
      "対": 1755,
      "封": 1756,
      "尊": 1757,
      "小": 1758,
      "少": 1759,
      "尔": 1760,
      "尙": 1761,
      "尚": 1762,
      "尻": 1763,
      "尼": 1764,
      "尽": 1765,
      "尾": 1766,
      "居": 1767,
      "届": 1768,
      "屋": 1769,
      "属": 1770,
      "山": 1771,
      "岐": 1772,
      "岛": 1773,
      "岡": 1774,
      "岩": 1775,
      "岬": 1776,
      "岳": 1777,
      "岸": 1778,
      "峡": 1779,
      "島": 1780,
      "崇": 1781,
      "崎": 1782,
      "嶋": 1783,
      "川": 1784,
      "州": 1785,
      "巣": 1786,
      "工": 1787,
      "巴": 1788,
      "巻": 1789,
      "市": 1790,
      "布": 1791,
      "帝": 1792,
      "師": 1793,
      "帮": 1794,
      "帯": 1795,
      "常": 1796,
      "帽": 1797,
      "幡": 1798,
      "干": 1799,
      "平": 1800,
      "年": 1801,
      "幸": 1802,
      "广": 1803,
      "庁": 1804,
      "広": 1805,
      "庄": 1806,
      "庆": 1807,
      "府": 1808,
      "度": 1809,
      "座": 1810,
      "庭": 1811,
      "康": 1812,
      "廈": 1813,
      "廊": 1814,
      "廣": 1815,
      "延": 1816,
      "建": 1817,
      "廿": 1818,
      "式": 1819,
      "弘": 1820,
      "张": 1821,
      "弥": 1822,
      "張": 1823,
      "弾": 1824,
      "形": 1825,
      "彦": 1826,
      "影": 1827,
      "彼": 1828,
      "征": 1829,
      "後": 1830,
      "徐": 1831,
      "御": 1832,
      "微": 1833,
      "德": 1834,
      "心": 1835,
      "忍": 1836,
      "志": 1837,
      "忘": 1838,
      "忙": 1839,
      "忠": 1840,
      "快": 1841,
      "念": 1842,
      "怀": 1843,
      "思": 1844,
      "怡": 1845,
      "性": 1846,
      "恋": 1847,
      "恵": 1848,
      "悟": 1849,
      "悼": 1850,
      "想": 1851,
      "意": 1852,
      "愛": 1853,
      "感": 1854,
      "慈": 1855,
      "慢": 1856,
      "慶": 1857,
      "成": 1858,
      "我": 1859,
      "战": 1860,
      "戦": 1861,
      "截": 1862,
      "戰": 1863,
      "戲": 1864,
      "戸": 1865,
      "房": 1866,
      "所": 1867,
      "扉": 1868,
      "手": 1869,
      "技": 1870,
      "抗": 1871,
      "折": 1872,
      "抜": 1873,
      "抵": 1874,
      "押": 1875,
      "拉": 1876,
      "拳": 1877,
      "拼": 1878,
      "振": 1879,
      "掛": 1880,
      "推": 1881,
      "揚": 1882,
      "援": 1883,
      "摂": 1884,
      "摩": 1885,
      "播": 1886,
      "撮": 1887,
      "攻": 1888,
      "政": 1889,
      "敏": 1890,
      "教": 1891,
      "敦": 1892,
      "敵": 1893,
      "敷": 1894,
      "數": 1895,
      "文": 1896,
      "斉": 1897,
      "斎": 1898,
      "斐": 1899,
      "斗": 1900,
      "斬": 1901,
      "斯": 1902,
      "新": 1903,
      "方": 1904,
      "旅": 1905,
      "旋": 1906,
      "族": 1907,
      "旗": 1908,
      "无": 1909,
      "日": 1910,
      "旨": 1911,
      "早": 1912,
      "旭": 1913,
      "昆": 1914,
      "昇": 1915,
      "昌": 1916,
      "明": 1917,
      "昙": 1918,
      "星": 1919,
      "春": 1920,
      "昭": 1921,
      "是": 1922,
      "時": 1923,
      "晉": 1924,
      "晋": 1925,
      "普": 1926,
      "景": 1927,
      "智": 1928,
      "曆": 1929,
      "曜": 1930,
      "曲": 1931,
      "曳": 1932,
      "更": 1933,
      "書": 1934,
      "曹": 1935,
      "月": 1936,
      "有": 1937,
      "朝": 1938,
      "木": 1939,
      "本": 1940,
      "术": 1941,
      "朱": 1942,
      "朴": 1943,
      "杉": 1944,
      "李": 1945,
      "村": 1946,
      "杜": 1947,
      "条": 1948,
      "来": 1949,
      "東": 1950,
      "杵": 1951,
      "松": 1952,
      "板": 1953,
      "林": 1954,
      "枚": 1955,
      "果": 1956,
      "枝": 1957,
      "柄": 1958,
      "柏": 1959,
      "柔": 1960,
      "柳": 1961,
      "柿": 1962,
      "栃": 1963,
      "栄": 1964,
      "标": 1965,
      "栗": 1966,
      "株": 1967,
      "根": 1968,
      "栽": 1969,
      "案": 1970,
      "桐": 1971,
      "桑": 1972,
      "桜": 1973,
      "桩": 1974,
      "桶": 1975,
      "梁": 1976,
      "梅": 1977,
      "條": 1978,
      "梨": 1979,
      "棋": 1980,
      "棍": 1981,
      "棚": 1982,
      "棣": 1983,
      "森": 1984,
      "植": 1985,
      "椿": 1986,
      "楢": 1987,
      "業": 1988,
      "極": 1989,
      "楼": 1990,
      "楽": 1991,
      "榮": 1992,
      "様": 1993,
      "槻": 1994,
      "樂": 1995,
      "標": 1996,
      "模": 1997,
      "横": 1998,
      "樹": 1999,
      "樺": 2000,
      "樽": 2001,
      "橋": 2002,
      "機": 2003,
      "橿": 2004,
      "櫻": 2005,
      "次": 2006,
      "歌": 2007,
      "正": 2008,
      "武": 2009,
      "歳": 2010,
      "殊": 2011,
      "段": 2012,
      "殻": 2013,
      "殿": 2014,
      "毒": 2015,
      "比": 2016,
      "毕": 2017,
      "毘": 2018,
      "毛": 2019,
      "氏": 2020,
      "民": 2021,
      "气": 2022,
      "気": 2023,
      "氣": 2024,
      "水": 2025,
      "氷": 2026,
      "永": 2027,
      "氹": 2028,
      "汉": 2029,
      "汕": 2030,
      "江": 2031,
      "池": 2032,
      "沖": 2033,
      "沙": 2034,
      "没": 2035,
      "沢": 2036,
      "沣": 2037,
      "河": 2038,
      "治": 2039,
      "沼": 2040,
      "泉": 2041,
      "法": 2042,
      "波": 2043,
      "注": 2044,
      "泰": 2045,
      "泸": 2046,
      "泽": 2047,
      "洛": 2048,
      "洞": 2049,
      "津": 2050,
      "洪": 2051,
      "洲": 2052,
      "流": 2053,
      "浄": 2054,
      "济": 2055,
      "浜": 2056,
      "浦": 2057,
      "浩": 2058,
      "浪": 2059,
      "海": 2060,
      "涛": 2061,
      "淄": 2062,
      "淡": 2063,
      "淮": 2064,
      "深": 2065,
      "淸": 2066,
      "添": 2067,
      "清": 2068,
      "渋": 2069,
      "渡": 2070,
      "温": 2071,
      "港": 2072,
      "湊": 2073,
      "湖": 2074,
      "湘": 2075,
      "湛": 2076,
      "湯": 2077,
      "湾": 2078,
      "満": 2079,
      "源": 2080,
      "準": 2081,
      "溪": 2082,
      "滋": 2083,
      "滑": 2084,
      "滝": 2085,
      "滨": 2086,
      "演": 2087,
      "漢": 2088,
      "漫": 2089,
      "漱": 2090,
      "漳": 2091,
      "潟": 2092,
      "潭": 2093,
      "潮": 2094,
      "澤": 2095,
      "澳": 2096,
      "濃": 2097,
      "濟": 2098,
      "濤": 2099,
      "濮": 2100,
      "瀬": 2101,
      "灃": 2102,
      "灣": 2103,
      "火": 2104,
      "烏": 2105,
      "烟": 2106,
      "無": 2107,
      "焦": 2108,
      "焼": 2109,
      "照": 2110,
      "熊": 2111,
      "熱": 2112,
      "燕": 2113,
      "爆": 2114,
      "爱": 2115,
      "爵": 2116,
      "父": 2117,
      "片": 2118,
      "版": 2119,
      "牌": 2120,
      "牛": 2121,
      "牟": 2122,
      "牡": 2123,
      "牧": 2124,
      "特": 2125,
      "牽": 2126,
      "犬": 2127,
      "狗": 2128,
      "狛": 2129,
      "狩": 2130,
      "狭": 2131,
      "狮": 2132,
      "狼": 2133,
      "玄": 2134,
      "玉": 2135,
      "王": 2136,
      "玖": 2137,
      "现": 2138,
      "珂": 2139,
      "珠": 2140,
      "班": 2141,
      "現": 2142,
      "球": 2143,
      "理": 2144,
      "琉": 2145,
      "琢": 2146,
      "琴": 2147,
      "瑞": 2148,
      "瑟": 2149,
      "環": 2150,
      "甘": 2151,
      "生": 2152,
      "産": 2153,
      "用": 2154,
      "田": 2155,
      "甲": 2156,
      "男": 2157,
      "町": 2158,
      "画": 2159,
      "留": 2160,
      "畳": 2161,
      "畵": 2162,
      "畷": 2163,
      "畿": 2164,
      "疆": 2165,
      "発": 2166,
      "登": 2167,
      "發": 2168,
      "白": 2169,
      "的": 2170,
      "皇": 2171,
      "盆": 2172,
      "益": 2173,
      "盘": 2174,
      "盛": 2175,
      "監": 2176,
      "盤": 2177,
      "目": 2178,
      "直": 2179,
      "相": 2180,
      "省": 2181,
      "県": 2182,
      "真": 2183,
      "眼": 2184,
      "着": 2185,
      "矢": 2186,
      "知": 2187,
      "石": 2188,
      "砂": 2189,
      "研": 2190,
      "破": 2191,
      "砺": 2192,
      "硫": 2193,
      "碁": 2194,
      "碧": 2195,
      "磐": 2196,
      "磯": 2197,
      "社": 2198,
      "祈": 2199,
      "祖": 2200,
      "神": 2201,
      "祢": 2202,
      "祥": 2203,
      "祭": 2204,
      "禁": 2205,
      "禅": 2206,
      "福": 2207,
      "禧": 2208,
      "秀": 2209,
      "秋": 2210,
      "科": 2211,
      "秦": 2212,
      "秩": 2213,
      "稚": 2214,
      "稲": 2215,
      "穂": 2216,
      "究": 2217,
      "空": 2218,
      "竈": 2219,
      "立": 2220,
      "站": 2221,
      "竜": 2222,
      "童": 2223,
      "端": 2224,
      "競": 2225,
      "竹": 2226,
      "笛": 2227,
      "笠": 2228,
      "第": 2229,
      "筋": 2230,
      "筑": 2231,
      "筒": 2232,
      "筷": 2233,
      "箕": 2234,
      "箭": 2235,
      "箸": 2236,
      "節": 2237,
      "築": 2238,
      "篠": 2239,
      "米": 2240,
      "粟": 2241,
      "粵": 2242,
      "糸": 2243,
      "系": 2244,
      "紅": 2245,
      "紋": 2246,
      "紙": 2247,
      "索": 2248,
      "紫": 2249,
      "終": 2250,
      "経": 2251,
      "結": 2252,
      "綏": 2253,
      "經": 2254,
      "綾": 2255,
      "総": 2256,
      "線": 2257,
      "練": 2258,
      "縄": 2259,
      "織": 2260,
      "红": 2261,
      "维": 2262,
      "罗": 2263,
      "羅": 2264,
      "美": 2265,
      "義": 2266,
      "羽": 2267,
      "習": 2268,
      "翼": 2269,
      "耀": 2270,
      "老": 2271,
      "者": 2272,
      "聖": 2273,
      "聯": 2274,
      "肃": 2275,
      "肅": 2276,
      "肉": 2277,
      "股": 2278,
      "肥": 2279,
      "胎": 2280,
      "胡": 2281,
      "能": 2282,
      "脇": 2283,
      "脚": 2284,
      "腐": 2285,
      "臣": 2286,
      "自": 2287,
      "至": 2288,
      "臺": 2289,
      "臼": 2290,
      "興": 2291,
      "舎": 2292,
      "舞": 2293,
      "航": 2294,
      "般": 2295,
      "船": 2296,
      "良": 2297,
      "艺": 2298,
      "芜": 2299,
      "芝": 2300,
      "芦": 2301,
      "花": 2302,
      "芸": 2303,
      "苏": 2304,
      "若": 2305,
      "苫": 2306,
      "茂": 2307,
      "茅": 2308,
      "茨": 2309,
      "茶": 2310,
      "草": 2311,
      "荒": 2312,
      "荘": 2313,
      "莽": 2314,
      "菅": 2315,
      "菊": 2316,
      "菜": 2317,
      "菩": 2318,
      "華": 2319,
      "菱": 2320,
      "萌": 2321,
      "萍": 2322,
      "萨": 2323,
      "萩": 2324,
      "萬": 2325,
      "葉": 2326,
      "葛": 2327,
      "葡": 2328,
      "董": 2329,
      "葦": 2330,
      "蒲": 2331,
      "蓮": 2332,
      "蔚": 2333,
      "蔵": 2334,
      "蕨": 2335,
      "薌": 2336,
      "薩": 2337,
      "藝": 2338,
      "藤": 2339,
      "藥": 2340,
      "蘇": 2341,
      "蘭": 2342,
      "虛": 2343,
      "虫": 2344,
      "蚌": 2345,
      "蛇": 2346,
      "蛹": 2347,
      "蜀": 2348,
      "蜜": 2349,
      "蟒": 2350,
      "血": 2351,
      "行": 2352,
      "術": 2353,
      "街": 2354,
      "衛": 2355,
      "衣": 2356,
      "表": 2357,
      "袋": 2358,
      "袖": 2359,
      "袴": 2360,
      "製": 2361,
      "裾": 2362,
      "西": 2363,
      "見": 2364,
      "視": 2365,
      "観": 2366,
      "角": 2367,
      "言": 2368,
      "計": 2369,
      "討": 2370,
      "訓": 2371,
      "記": 2372,
      "訪": 2373,
      "話": 2374,
      "語": 2375,
      "読": 2376,
      "調": 2377,
      "諏": 2378,
      "論": 2379,
      "諫": 2380,
      "諸": 2381,
      "諾": 2382,
      "謀": 2383,
      "警": 2384,
      "議": 2385,
      "護": 2386,
      "讀": 2387,
      "论": 2388,
      "话": 2389,
      "语": 2390,
      "说": 2391,
      "谋": 2392,
      "谷": 2393,
      "豆": 2394,
      "豊": 2395,
      "象": 2396,
      "貝": 2397,
      "財": 2398,
      "貴": 2399,
      "賀": 2400,
      "贡": 2401,
      "贵": 2402,
      "赤": 2403,
      "赴": 2404,
      "越": 2405,
      "足": 2406,
      "路": 2407,
      "踪": 2408,
      "身": 2409,
      "車": 2410,
      "軍": 2411,
      "輝": 2412,
      "輪": 2413,
      "輸": 2414,
      "辉": 2415,
      "输": 2416,
      "辛": 2417,
      "辞": 2418,
      "辰": 2419,
      "農": 2420,
      "辺": 2421,
      "运": 2422,
      "近": 2423,
      "追": 2424,
      "逗": 2425,
      "通": 2426,
      "速": 2427,
      "造": 2428,
      "逢": 2429,
      "進": 2430,
      "遊": 2431,
      "道": 2432,
      "達": 2433,
      "遠": 2434,
      "遥": 2435,
      "遷": 2436,
      "邓": 2437,
      "那": 2438,
      "邦": 2439,
      "邪": 2440,
      "邱": 2441,
      "邵": 2442,
      "郎": 2443,
      "郡": 2444,
      "部": 2445,
      "郷": 2446,
      "都": 2447,
      "鄉": 2448,
      "鄧": 2449,
      "酒": 2450,
      "醂": 2451,
      "醫": 2452,
      "里": 2453,
      "重": 2454,
      "野": 2455,
      "金": 2456,
      "釜": 2457,
      "釧": 2458,
      "釵": 2459,
      "鈴": 2460,
      "銀": 2461,
      "銚": 2462,
      "銭": 2463,
      "鋼": 2464,
      "錢": 2465,
      "錦": 2466,
      "鎌": 2467,
      "鎖": 2468,
      "鎬": 2469,
      "鏡": 2470,
      "鏵": 2471,
      "钟": 2472,
      "银": 2473,
      "锡": 2474,
      "锦": 2475,
      "镇": 2476,
      "镐": 2477,
      "長": 2478,
      "长": 2479,
      "門": 2480,
      "間": 2481,
      "関": 2482,
      "閣": 2483,
      "闘": 2484,
      "门": 2485,
      "阜": 2486,
      "阪": 2487,
      "防": 2488,
      "阳": 2489,
      "阿": 2490,
      "附": 2491,
      "陆": 2492,
      "限": 2493,
      "陳": 2494,
      "陸": 2495,
      "陽": 2496,
      "隊": 2497,
      "際": 2498,
      "隠": 2499,
      "隧": 2500,
      "雄": 2501,
      "雅": 2502,
      "雙": 2503,
      "雪": 2504,
      "雲": 2505,
      "雷": 2506,
      "電": 2507,
      "霊": 2508,
      "霞": 2509,
      "靈": 2510,
      "靑": 2511,
      "青": 2512,
      "靖": 2513,
      "静": 2514,
      "靜": 2515,
      "面": 2516,
      "革": 2517,
      "韓": 2518,
      "韮": 2519,
      "音": 2520,
      "韵": 2521,
      "韶": 2522,
      "韻": 2523,
      "順": 2524,
      "須": 2525,
      "領": 2526,
      "題": 2527,
      "顶": 2528,
      "風": 2529,
      "飛": 2530,
      "飯": 2531,
      "飼": 2532,
      "養": 2533,
      "餘": 2534,
      "館": 2535,
      "香": 2536,
      "馨": 2537,
      "馬": 2538,
      "駅": 2539,
      "駒": 2540,
      "騨": 2541,
      "马": 2542,
      "高": 2543,
      "鬼": 2544,
      "魏": 2545,
      "魔": 2546,
      "魚": 2547,
      "鮮": 2548,
      "鯖": 2549,
      "鲁": 2550,
      "鳥": 2551,
      "鳩": 2552,
      "鳴": 2553,
      "鴨": 2554,
      "鴻": 2555,
      "鵜": 2556,
      "鶴": 2557,
      "鷲": 2558,
      "鷹": 2559,
      "鸡": 2560,
      "鸣": 2561,
      "鹿": 2562,
      "麗": 2563,
      "麵": 2564,
      "麿": 2565,
      "黃": 2566,
      "黄": 2567,
      "黑": 2568,
      "黒": 2569,
      "黨": 2570,
      "齊": 2571,
      "齋": 2572,
      "齐": 2573,
      "龍": 2574,
      "龙": 2575,
      "ꜜ": 2576,
      "ꜣ": 2577,
      "ꜥ": 2578,
      "가": 2579,
      "강": 2580,
      "개": 2581,
      "경": 2582,
      "계": 2583,
      "고": 2584,
      "곡": 2585,
      "공": 2586,
      "관": 2587,
      "광": 2588,
      "교": 2589,
      "구": 2590,
      "국": 2591,
      "군": 2592,
      "균": 2593,
      "그": 2594,
      "글": 2595,
      "금": 2596,
      "기": 2597,
      "김": 2598,
      "나": 2599,
      "남": 2600,
      "단": 2601,
      "담": 2602,
      "당": 2603,
      "대": 2604,
      "덕": 2605,
      "도": 2606,
      "동": 2607,
      "둑": 2608,
      "라": 2609,
      "락": 2610,
      "람": 2611,
      "량": 2612,
      "럭": 2613,
      "레": 2614,
      "려": 2615,
      "로": 2616,
      "록": 2617,
      "루": 2618,
      "류": 2619,
      "리": 2620,
      "림": 2621,
      "마": 2622,
      "만": 2623,
      "매": 2624,
      "명": 2625,
      "모": 2626,
      "목": 2627,
      "무": 2628,
      "미": 2629,
      "민": 2630,
      "바": 2631,
      "박": 2632,
      "반": 2633,
      "방": 2634,
      "백": 2635,
      "별": 2636,
      "보": 2637,
      "부": 2638,
      "북": 2639,
      "사": 2640,
      "산": 2641,
      "삼": 2642,
      "상": 2643,
      "색": 2644,
      "서": 2645,
      "선": 2646,
      "성": 2647,
      "세": 2648,
      "수": 2649,
      "스": 2650,
      "시": 2651,
      "식": 2652,
      "신": 2653,
      "실": 2654,
      "안": 2655,
      "암": 2656,
      "애": 2657,
      "야": 2658,
      "양": 2659,
      "업": 2660,
      "엘": 2661,
      "역": 2662,
      "영": 2663,
      "온": 2664,
      "올": 2665,
      "요": 2666,
      "운": 2667,
      "울": 2668,
      "원": 2669,
      "윤": 2670,
      "은": 2671,
      "음": 2672,
      "의": 2673,
      "인": 2674,
      "일": 2675,
      "자": 2676,
      "작": 2677,
      "잠": 2678,
      "장": 2679,
      "전": 2680,
      "정": 2681,
      "제": 2682,
      "조": 2683,
      "주": 2684,
      "중": 2685,
      "지": 2686,
      "진": 2687,
      "창": 2688,
      "천": 2689,
      "철": 2690,
      "청": 2691,
      "춘": 2692,
      "충": 2693,
      "칠": 2694,
      "크": 2695,
      "키": 2696,
      "탕": 2697,
      "텔": 2698,
      "특": 2699,
      "팔": 2700,
      "평": 2701,
      "포": 2702,
      "프": 2703,
      "픽": 2704,
      "하": 2705,
      "한": 2706,
      "함": 2707,
      "해": 2708,
      "행": 2709,
      "허": 2710,
      "혁": 2711,
      "현": 2712,
      "호": 2713,
      "홀": 2714,
      "홍": 2715,
      "화": 2716,
      "황": 2717,
      "회": 2718,
      "효": 2719,
      "훈": 2720,
      "흥": 2721,
      "ﬁ": 2722,
      "️": 2723,
      "ﺎ": 2724,
      "ﺮ": 2725,
      "ﺯ": 2726,
      "ﺳ": 2727,
      "ﺻ": 2728,
      "ﺿ": 2729,
      "ﻔ": 2730,
      "ﻛ": 2731,
      "ﻣ": 2732,
      "ﻮ": 2733,
      "ﻱ": 2734,
      "ﻳ": 2735,
      "！": 2736,
      "（": 2737,
      "）": 2738,
      "＋": 2739,
      "－": 2740,
      "ｃ": 2741,
      "￼": 2742,
      "𐌰": 2743,
      "𐌽": 2744,
      "𐌿": 2745,
      "𐍃": 2746,
      "𐍄": 2747,
      "𐎠": 2748,
      "𐎢": 2749,
      "𐎤": 2750,
      "𐎭": 2751,
      "𐎶": 2752,
      "𐎼": 2753,
      "𐎽": 2754,
      "𐏀": 2755,
      "𐏁": 2756,
      "𐤀": 2757,
      "𐤁": 2758,
      "𐤃": 2759,
      "𐤄": 2760,
      "𐤅": 2761,
      "𐤇": 2762,
      "𐤉": 2763,
      "𐤋": 2764,
      "𐤍": 2765,
      "𐤏": 2766,
      "𐤑": 2767,
      "𐤓": 2768,
      "𐤕": 2769,
      "𐬀": 2770,
      "𐬃": 2771,
      "𐬋": 2772,
      "𐬌": 2773,
      "𐬎": 2774,
      "𐬛": 2775,
      "𐬢": 2776,
      "𐬥": 2777,
      "𐬨": 2778,
      "𐬭": 2779,
      "𐬰": 2780,
      "𐬵": 2781,
      "𑀅": 2782,
      "𑀓": 2783,
      "𑀲": 2784,
      "𑁄": 2785,
      "𒀭": 2786,
      "𒁺": 2787,
      "𒂗": 2788,
      "𒃶": 2789,
      "𒆠": 2790,
      "𒆧": 2791,
      "𒈾": 2792,
      "𞤤": 2793,
      "𞤦": 2794,
      "𞤨": 2795,
      "𞤪": 2796,
      "𞤫": 2797,
      "𞤭": 2798,
      "𞤲": 2799,
      "𞤳": 2800,
      "𞤵": 2801,
      "𞤺": 2802,
      "##r": 2803,
      "##e": 2804,
      "##c": 2805,
      "##h": 2806,
      "##t": 2807,
      "##a": 2808,
      "##l": 2809,
      "##g": 2810,
      "##o": 2811,
      "##p": 2812,
      "##u": 2813,
      "##n": 2814,
      "##d": 2815,
      "##s": 2816,
      "##f": 2817,
      "##w": 2818,
      "##i": 2819,
      "##x": 2820,
      "##v": 2821,
      "##z": 2822,
      "##ñ": 2823,
      "##m": 2824,
      "##5": 2825,
      "##1": 2826,
      "##6": 2827,
      "##2": 2828,
      "##7": 2829,
      "##3": 2830,
      "##9": 2831,
      "##0": 2832,
      "##4": 2833,
      "##8": 2834,
      "##ó": 2835,
      "##é": 2836,
      "##j": 2837,
      "##ã": 2838,
      "##b": 2839,
      "##k": 2840,
      "##q": 2841,
      "##ü": 2842,
      "##í": 2843,
      "##ô": 2844,
      "##y": 2845,
      "##á": 2846,
      "##ú": 2847,
      "##č": 2848,
      "##ו": 2849,
      "##ר": 2850,
      "##י": 2851,
      "##ן": 2852,
      "##ç": 2853,
      "##ĕ": 2854,
      "##è": 2855,
      "##ê": 2856,
      "##õ": 2857,
      "##ī": 2858,
      "##â": 2859,
      "##×": 2860,
      "##š": 2861,
      "##ŭ": 2862,
      "##ø": 2863,
      "##ا": 2864,
      "##ئ": 2865,
      "##د": 2866,
      "##ن": 2867,
      "##α": 2868,
      "##ρ": 2869,
      "##ώ": 2870,
      "##ν": 2871,
      "##υ": 2872,
      "##μ": 2873,
      "##ἱ": 2874,
      "##ū": 2875,
      "##ǔ": 2876,
      "##ù": 2877,
      "##а": 2878,
      "##д": 2879,
      "##х": 2880,
      "##ш": 2881,
      "##о": 2882,
      "##н": 2883,
      "##л": 2884,
      "##е": 2885,
      "##ь": 2886,
      "##к": 2887,
      "##ो": 2888,
      "##ह": 2889,
      "##न": 2890,
      "##ů": 2891,
      "##º": 2892,
      "##ệ": 2893,
      "##צ": 2894,
      "##ְ": 2895,
      "##ּ": 2896,
      "##א": 2897,
      "##ֵ": 2898,
      "##с": 2899,
      "##æ": 2900,
      "##°": 2901,
      "##천": 2902,
      "##시": 2903,
      "##ł": 2904,
      "##ل": 2905,
      "##م": 2906,
      "##ب": 2907,
      "##פ": 2908,
      "##ה": 2909,
      "##강": 2910,
      "##도": 2911,
      "##ל": 2912,
      "##ם": 2913,
      "##ồ": 2914,
      "##ي": 2915,
      "##ì": 2916,
      "##ō": 2917,
      "##λ": 2918,
      "##ι": 2919,
      "##ς": 2920,
      "##τ": 2921,
      "##ε": 2922,
      "##ο": 2923,
      "##ä": 2924,
      "##ṇ": 2925,
      "##ā": 2926,
      "##ت": 2927,
      "##ح": 2928,
      "##ة": 2929,
      "##ე": 2930,
      "##ც": 2931,
      "##ი": 2932,
      "##თ": 2933,
      "##ד": 2934,
      "##р": 2935,
      "##у": 2936,
      "##т": 2937,
      "##식": 2938,
      "##회": 2939,
      "##사": 2940,
      "##в": 2941,
      "##ʊ": 2942,
      "##ɡ": 2943,
      "##−": 2944,
      "##²": 2945,
      "##ħ": 2946,
      "##ί": 2947,
      "##θ": 2948,
      "##´": 2949,
      "##ö": 2950,
      "##ά": 2951,
      "##δ": 2952,
      "##명": 2953,
      "##ș": 2954,
      "##à": 2955,
      "##ѣ": 2956,
      "##ъ": 2957,
      "##ج": 2958,
      "##ر": 2959,
      "##ṭ": 2960,
      "##й": 2961,
      "##ғ": 2962,
      "##ы": 2963,
      "##ু": 2964,
      "##ল": 2965,
      "##গ": 2966,
      "##ে": 2967,
      "##র": 2968,
      "##ি": 2969,
      "##য": 2970,
      "##়": 2971,
      "##া": 2972,
      "##κ": 2973,
      "##έ": 2974,
      "##η": 2975,
      "##ξ": 2976,
      "##ش": 2977,
      "##إ": 2978,
      "##ك": 2979,
      "##س": 2980,
      "##ª": 2981,
      "##ē": 2982,
      "##윤": 2983,
      "##진": 2984,
      "##ũ": 2985,
      "##и": 2986,
      "##ч": 2987,
      "##ß": 2988,
      "##ò": 2989,
      "##χ": 2990,
      "##ή": 2991,
      "##σ": 2992,
      "##ạ": 2993,
      "##ʾ": 2994,
      "##그": 2995,
      "##나": 2996,
      "##로": 2997,
      "##크": 2998,
      "##ຫ": 2999,
      "##ມ": 3000,
      "##ž": 3001,
      "##♭": 3002,
      "##ン": 3003,
      "##テ": 3004,
      "##ィ": 3005,
      "##ル": 3006,
      "##נ": 3007,
      "##î": 3008,
      "##ত": 3009,
      "##ী": 3010,
      "##ɐ": 3011,
      "##ˈ": 3012,
      "##ɛ": 3013,
      "##ɫ": 3014,
      "##わ": 3015,
      "##き": 3016,
      "##ש": 3017,
      "##ת": 3018,
      "##п": 3019,
      "##γ": 3020,
      "##½": 3021,
      "##å": 3022,
      "##ț": 3023,
      "##ý": 3024,
      "##ύ": 3025,
      "##π": 3026,
      "##ω": 3027,
      "##ュ": 3028,
      "##ア": 3029,
      "##ï": 3030,
      "##구": 3031,
      "##́": 3032,
      "##г": 3033,
      "##ḍ": 3034,
      "##ほ": 3035,
      "##く": 3036,
      "##¹": 3037,
      "##ę": 3038,
      "##ב": 3039,
      "##ु": 3040,
      "##द": 3041,
      "##्": 3042,
      "##ध": 3043,
      "##®": 3044,
      "##ز": 3045,
      "##ی": 3046,
      "##ð": 3047,
      "##ა": 3048,
      "##ვ": 3049,
      "##კ": 3050,
      "##ს": 3051,
      "##ϊ": 3052,
      "##ό": 3053,
      "##מ": 3054,
      "##ס": 3055,
      "##ą": 3056,
      "##ź": 3057,
      "##ı": 3058,
      "##ф": 3059,
      "##خ": 3060,
      "##כ": 3061,
      "##ג": 3062,
      "##ြ": 3063,
      "##န": 3064,
      "##်": 3065,
      "##မ": 3066,
      "##ာ": 3067,
      "##ဘ": 3068,
      "##သ": 3069,
      "##φ": 3070,
      "##ṣ": 3071,
      "##б": 3072,
      "##ວ": 3073,
      "##ğ": 3074,
      "##ş": 3075,
      "##ɟ": 3076,
      "##м": 3077,
      "##ى": 3078,
      "##ִ": 3079,
      "##ׂ": 3080,
      "##ָ": 3081,
      "##ų": 3082,
      "##я": 3083,
      "##ϟ": 3084,
      "##ě": 3085,
      "##ؤ": 3086,
      "##ɬ": 3087,
      "##ֶ": 3088,
      "##ץ": 3089,
      "##ׁ": 3090,
      "##ַ": 3091,
      "##ע": 3092,
      "##ه": 3093,
      "##수": 3094,
      "##대": 3095,
      "##교": 3096,
      "##コ": 3097,
      "##ّ": 3098,
      "##ص": 3099,
      "##ხ": 3100,
      "##რ": 3101,
      "##უ": 3102,
      "##ლ": 3103,
      "##리": 3104,
      "##암": 3105,
      "##ਵ": 3106,
      "##ੀ": 3107,
      "##ਂ": 3108,
      "##ʲ": 3109,
      "##ɔ": 3110,
      "##ῠ": 3111,
      "##ῐ": 3112,
      "##ᾱ": 3113,
      "##ܝ": 3114,
      "##ܢ": 3115,
      "##ܘ": 3116,
      "##ܐ": 3117,
      "##ĭ": 3118,
      "##ж": 3119,
      "##β": 3120,
      "##э": 3121,
      "##ን": 3122,
      "##ቺ": 3123,
      "##ق": 3124,
      "##ེ": 3125,
      "##མ": 3126,
      "##ས": 3127,
      "##þ": 3128,
      "##당": 3129,
      "##ë": 3130,
      "##ך": 3131,
      "##ա": 3132,
      "##ժ": 3133,
      "##ք": 3134,
      "##ă": 3135,
      "##ὐ": 3136,
      "##ц": 3137,
      "##ض": 3138,
      "##ɪ": 3139,
      "##ɒ": 3140,
      "##ɨ": 3141,
      "##ラ": 3142,
      "##ジ": 3143,
      "##ጀ": 3144,
      "##ግ": 3145,
      "##ና": 3146,
      "##™": 3147,
      "##𒆠": 3148,
      "##ś": 3149,
      "##ć": 3150,
      "##و": 3151,
      "##ɾ": 3152,
      "##ʒ": 3153,
      "##ː": 3154,
      "##ع": 3155,
      "##ё": 3156,
      "##주": 3157,
      "##შ": 3158,
      "##მ": 3159,
      "##ტ": 3160,
      "##ბ": 3161,
      "##지": 3162,
      "##û": 3163,
      "##ʻ": 3164,
      "##곡": 3165,
      "##철": 3166,
      "##ə": 3167,
      "##̃": 3168,
      "##ෝ": 3169,
      "##ර": 3170,
      "##ම": 3171,
      "##ල": 3172,
      "##්": 3173,
      "##ි": 3174,
      "##ก": 3175,
      "##า": 3176,
      "##ะ": 3177,
      "##ῆ": 3178,
      "##ţ": 3179,
      "##ј": 3180,
      "##ŏ": 3181,
      "##ÿ": 3182,
      "##ር": 3183,
      "##ቶ": 3184,
      "##ዶ": 3185,
      "##ክ": 3186,
      "##ስ": 3187,
      "##ῖ": 3188,
      "##ា": 3189,
      "##ណ": 3190,
      "##ច": 3191,
      "##ក": 3192,
      "##្": 3193,
      "##រ": 3194,
      "##✌": 3195,
      "##ř": 3196,
      "##œ": 3197,
      "##𐤓": 3198,
      "##̇": 3199,
      "##ल": 3200,
      "##ा": 3201,
      "##ῦ": 3202,
      "##ġ": 3203,
      "##ז": 3204,
      "##დ": 3205,
      "##ო": 3206,
      "##ذ": 3207,
      "##な": 3208,
      "##い": 3209,
      "##ნ": 3210,
      "##त": 3211,
      "##म": 3212,
      "##₨": 3213,
      "##ṃ": 3214,
      "##𐤁": 3215,
      "##𐤀": 3216,
      "##𐤕": 3217,
      "##ɑ": 3218,
      "##ʈ": 3219,
      "##̯": 3220,
      "##ζ": 3221,
      "##ާ": 3222,
      "##ލ": 3223,
      "##ެ": 3224,
      "##र": 3225,
      "##श": 3226,
      "##ʼ": 3227,
      "##계": 3228,
      "##ط": 3229,
      "##ň": 3230,
      "##ন": 3231,
      "##প": 3232,
      "##স": 3233,
      "##ং": 3234,
      "##খ": 3235,
      "##্": 3236,
      "##ө": 3237,
      "##ү": 3238,
      "##ფ": 3239,
      "##ơ": 3240,
      "##ፐ": 3241,
      "##ብ": 3242,
      "##ሊ": 3243,
      "##ǎ": 3244,
      "##남": 3245,
      "##ὀ": 3246,
      "##ⵎ": 3247,
      "##ⵓ": 3248,
      "##ⵔ": 3249,
      "##ዳ": 3250,
      "##ক": 3251,
      "##ব": 3252,
      "##দ": 3253,
      "##ે": 3254,
      "##લ": 3255,
      "##્": 3256,
      "##વ": 3257,
      "##ા": 3258,
      "##સ": 3259,
      "##ḥ": 3260,
      "##ǚ": 3261,
      "##ὴ": 3262,
      "##ყ": 3263,
      "##з": 3264,
      "##ў": 3265,
      "##흥": 3266,
      "##군": 3267,
      "##청": 3268,
      "##པ": 3269,
      "##འ": 3270,
      "##ק": 3271,
      "##𐎢": 3272,
      "##𐎽": 3273,
      "##𐏁": 3274,
      "##ń": 3275,
      "##ف": 3276,
      "##ҡ": 3277,
      "##ϕ": 3278,
      "##포": 3279,
      "##중": 3280,
      "##ἐ": 3281,
      "##전": 3282,
      "##광": 3283,
      "##역": 3284,
      "##ט": 3285,
      "##경": 3286,
      "##ܫ": 3287,
      "##і": 3288,
      "##ż": 3289,
      "##ృ": 3290,
      "##ష": 3291,
      "##్": 3292,
      "##ణ": 3293,
      "##ﻔ": 3294,
      "##ﺮ": 3295,
      "##ŋ": 3296,
      "##ノ": 3297,
      "##セ": 3298,
      "##ス": 3299,
      "##े": 3300,
      "##ट": 3301,
      "##ʃ": 3302,
      "##→": 3303,
      "##ἶ": 3304,
      "##̊": 3305,
      "##€": 3306,
      "##창": 3307,
      "##호": 3308,
      "##화": 3309,
      "##ʔ": 3310,
      "##ὸ": 3311,
      "##ቲ": 3312,
      "##ያ": 3313,
      "##ະ": 3314,
      "##ʋ": 3315,
      "##ɲ": 3316,
      "##ẽ": 3317,
      "##ῶ": 3318,
      "##ී": 3319,
      "##أ": 3320,
      "##ै": 3321,
      "##원": 3322,
      "##균": 3323,
      "##ֲ": 3324,
      "##ĩ": 3325,
      "##ら": 3326,
      "##が": 3327,
      "##ɣ": 3328,
      "##ʀ": 3329,
      "##ї": 3330,
      "##̥": 3331,
      "##ˁ": 3332,
      "##ő": 3333,
      "##성": 3334,
      "##ḇ": 3335,
      "##평": 3336,
      "##ि": 3337,
      "##ֻ": 3338,
      "##ት": 3339,
      "##щ": 3340,
      "##상": 3341,
      "##북": 3342,
      "##জ": 3343,
      "##¥": 3344,
      "##ח": 3345,
      "##ư": 3346,
      "##ờ": 3347,
      "##ণ": 3348,
      "##ẹ": 3349,
      "##ǫ": 3350,
      "##ク": 3351,
      "##ヨ": 3352,
      "##ミ": 3353,
      "##ὖ": 3354,
      "##ো": 3355,
      "##ভ": 3356,
      "##ả": 3357,
      "##ֿ": 3358,
      "##ト": 3359,
      "##マ": 3360,
      "##ネ": 3361,
      "##サ": 3362,
      "##ዴ": 3363,
      "##ራ": 3364,
      "##ላ": 3365,
      "##ዊ": 3366,
      "##ء": 3367,
      "##³": 3368,
      "##ḗ": 3369,
      "##산": 3370,
      "##ም": 3371,
      "##ự": 3372,
      "##َ": 3373,
      "##ْ": 3374,
      "##ِ": 3375,
      "##ֹ": 3376,
      "##ף": 3377,
      "##ė": 3378,
      "##ộ": 3379,
      "##ļ": 3380,
      "##울": 3381,
      "##व": 3382,
      "##ी": 3383,
      "##ອ": 3384,
      "##ɕ": 3385,
      "##≡": 3386,
      "##글": 3387,
      "##ۇ": 3388,
      "##غ": 3389,
      "##լ": 3390,
      "##վ": 3391,
      "##ե": 3392,
      "##ր": 3393,
      "##դ": 3394,
      "##ի": 3395,
      "##ʷ": 3396,
      "##ὔ": 3397,
      "##າ": 3398,
      "##일": 3399,
      "##ጋ": 3400,
      "##ἴ": 3401,
      "##ย": 3402,
      "##ม": 3403,
      "##य": 3404,
      "##ग": 3405,
      "##ˌ": 3406,
      "##은": 3407,
      "##행": 3408,
      "##루": 3409,
      "##프": 3410,
      "##ǁ": 3411,
      "##ं": 3412,
      "##भ": 3413,
      "##ळ": 3414,
      "##ֽ": 3415,
      "##ế": 3416,
      "##≈": 3417,
      "##ϑ": 3418,
      "##ظ": 3419,
      "##や": 3420,
      "##ુ": 3421,
      "##જ": 3422,
      "##ર": 3423,
      "##ત": 3424,
      "##ດ": 3425,
      "##̅": 3426,
      "##ี": 3427,
      "##่": 3428,
      "##ง": 3429,
      "##ψ": 3430,
      "##ঙ": 3431,
      "##ṁ": 3432,
      "##̠": 3433,
      "##ー": 3434,
      "##プ": 3435,
      "##リ": 3436,
      "##タ": 3437,
      "##ブ": 3438,
      "##ッ": 3439,
      "##ド": 3440,
      "##ፃ": 3441,
      "##ነ": 3442,
      "##ť": 3443,
      "##ण": 3444,
      "##ड": 3445,
      "##ɯ": 3446,
      "##ۈ": 3447,
      "##چ": 3448,
      "##۹": 3449,
      "##٦": 3450,
      "##۷": 3451,
      "##़": 3452,
      "##ỹ": 3453,
      "##ḽ": 3454,
      "##⋅": 3455,
      "##≠": 3456,
      "##स": 3457,
      "##ू": 3458,
      "##ゴ": 3459,
      "##の": 3460,
      "##ď": 3461,
      "##ʁ": 3462,
      "##록": 3463,
      "##ڬ": 3464,
      "##ደ": 3465,
      "##ል": 3466,
      "##ˡ": 3467,
      "##ܪ": 3468,
      "##̈": 3469,
      "##ܡ": 3470,
      "##ċ": 3471,
      "##µ": 3472,
      "##ἷ": 3473,
      "##ʿ": 3474,
      "##₁": 3475,
      "##ኢ": 3476,
      "##ዮ": 3477,
      "##ጵ": 3478,
      "##ĥ": 3479,
      "##𒃶": 3480,
      "##𒁺": 3481,
      "##𒀭": 3482,
      "##𒈾": 3483,
      "##ዕ": 3484,
      "##ǒ": 3485,
      "##ֱ": 3486,
      "##¢": 3487,
      "##ḏ": 3488,
      "##ղ": 3489,
      "##ռ": 3490,
      "##ն": 3491,
      "##ビ": 3492,
      "##च": 3493,
      "##담": 3494,
      "##ナ": 3495,
      "##ю": 3496,
      "##ब": 3497,
      "##ἰ": 3498,
      "##ⵏ": 3499,
      "##ⴻ": 3500,
      "##ⵙ": 3501,
      "##մ": 3502,
      "##ո": 3503,
      "##ւ": 3504,
      "##թ": 3505,
      "##յ": 3506,
      "##ゃ": 3507,
      "##ძ": 3508,
      "##ﻮ": 3509,
      "##ﺳ": 3510,
      "##ﻱ": 3511,
      "##қ": 3512,
      "##ң": 3513,
      "##ு": 3514,
      "##வ": 3515,
      "##ர": 3516,
      "##ை": 3517,
      "##ம": 3518,
      "##ல": 3519,
      "##்": 3520,
      "##ி": 3521,
      "##ɹ": 3522,
      "##フ": 3523,
      "##シ": 3524,
      "##ャ": 3525,
      "##イ": 3526,
      "##ሰ": 3527,
      "##ረ": 3528,
      "##ተ": 3529,
      "##ਿ": 3530,
      "##ੰ": 3531,
      "##ਘ": 3532,
      "##ᚢ": 3533,
      "##ᚦ": 3534,
      "##ᚨ": 3535,
      "##ᚱ": 3536,
      "##ᚴ": 3537,
      "##ẓ": 3538,
      "##һ": 3539,
      "##ज": 3540,
      "##ຕ": 3541,
      "##ḫ": 3542,
      "##ʏ": 3543,
      "##ボ": 3544,
      "##प": 3545,
      "##ん": 3546,
      "##と": 3547,
      "##う": 3548,
      "##đ": 3549,
      "##ὶ": 3550,
      "##ŵ": 3551,
      "##ầ": 3552,
      "##ຂ": 3553,
      "##̪": 3554,
      "##ṯ": 3555,
      "##क": 3556,
      "##ῴ": 3557,
      "##➞": 3558,
      "##©": 3559,
      "##ੁ": 3560,
      "##ਧ": 3561,
      "##ਆ": 3562,
      "##ਣ": 3563,
      "##ਾ": 3564,
      "##ᾰ": 3565,
      "##ọ": 3566,
      "##ይ": 3567,
      "##ለ": 3568,
      "##გ": 3569,
      "##よ": 3570,
      "##̝": 3571,
      "##ⵣ": 3572,
      "##ⵗ": 3573,
      "##ⵜ": 3574,
      "##ű": 3575,
      "##∴": 3576,
      "##̀": 3577,
      "##ʉ": 3578,
      "##ʰ": 3579,
      "##ා": 3580,
      "##ත": 3581,
      "##ක": 3582,
      "##ﬁ": 3583,
      "##̄": 3584,
      "##ʦ": 3585,
      "##ய": 3586,
      "##த": 3587,
      "##ன": 3588,
      "##ப": 3589,
      "##양": 3590,
      "##ṓ": 3591,
      "##የ": 3592,
      "##զ": 3593,
      "##ᓇ": 3594,
      "##ᕗ": 3595,
      "##ᑦ": 3596,
      "##レ": 3597,
      "##キ": 3598,
      "##ꜥ": 3599,
      "##た": 3600,
      "##ま": 3601,
      "##기": 3602,
      "##ị": 3603,
      "##ǧ": 3604,
      "##𐬢": 3605,
      "##𐬭": 3606,
      "##𐬀": 3607,
      "##ṅ": 3608,
      "##կ": 3609,
      "##̰": 3610,
      "##ܒ": 3611,
      "##ớ": 3612,
      "##گ": 3613,
      "##ھ": 3614,
      "##𑀲": 3615,
      "##𑁄": 3616,
      "##𑀓": 3617,
      "##ุ": 3618,
      "##้": 3619,
      "##ั": 3620,
      "##ร": 3621,
      "##∨": 3622,
      "##ං": 3623,
      "##ザ": 3624,
      "##ث": 3625,
      "##พ": 3626,
      "##ዜ": 3627,
      "##ễ": 3628,
      "##ຮ": 3629,
      "##ງ": 3630,
      "##ከ": 3631,
      "##ீ": 3632,
      "##ድ": 3633,
      "##ʧ": 3634,
      "##ﻛ": 3635,
      "##ﻳ": 3636,
      "##ﺎ": 3637,
      "##ূ": 3638,
      "##บ": 3639,
      "##ิ": 3640,
      "##น": 3641,
      "##ไ": 3642,
      "##ท": 3643,
      "##শ": 3644,
      "##ট": 3645,
      "##ち": 3646,
      "##か": 3647,
      "##₂": 3648,
      "##동": 3649,
      "##ຈ": 3650,
      "##ธ": 3651,
      "##ส": 3652,
      "##ต": 3653,
      "##ว": 3654,
      "##์": 3655,
      "##ỳ": 3656,
      "##의": 3657,
      "##̱": 3658,
      "##ố": 3659,
      "##ຊ": 3660,
      "##ທ": 3661,
      "##ິ": 3662,
      "##ປ": 3663,
      "##ໄ": 3664,
      "##ᙶ": 3665,
      "##ქ": 3666,
      "##ủ": 3667,
      "##ゆ": 3668,
      "##び": 3669,
      "##お": 3670,
      "##み": 3671,
      "##개": 3672,
      "##정": 3673,
      "##ŷ": 3674,
      "##ண": 3675,
      "##야": 3676,
      "##ɵ": 3677,
      "##ዝ": 3678,
      "##ቦ": 3679,
      "##ች": 3680,
      "##ウ": 3681,
      "##ツ": 3682,
      "##ロ": 3683,
      "##ቡ": 3684,
      "##ጊ": 3685,
      "##ˀ": 3686,
      "##カ": 3687,
      "##オ": 3688,
      "##ダ": 3689,
      "##හ": 3690,
      "##͡": 3691,
      "##ɽ": 3692,
      "##ゼ": 3693,
      "##ｃ": 3694,
      "##키": 3695,
      "##금": 3696,
      "##ນ": 3697,
      "##̟": 3698,
      "##ບ": 3699,
      "##ܟ": 3700,
      "##ķ": 3701,
      "##ည": 3702,
      "##ထ": 3703,
      "##ေ": 3704,
      "##င": 3705,
      "##စ": 3706,
      "##ု": 3707,
      "##္": 3708,
      "##တ": 3709,
      "##제": 3710,
      "##հ": 3711,
      "##す": 3712,
      "##̩": 3713,
      "##ྱ": 3714,
      "##ང": 3715,
      "##𞤭": 3716,
      "##𞤲": 3717,
      "##𞤫": 3718,
      "##스": 3719,
      "##탕": 3720,
      "##작": 3721,
      "##थ": 3722,
      "##ℓ": 3723,
      "##세": 3724,
      "##영": 3725,
      "##ـ": 3726,
      "##ີ": 3727,
      "##ສ": 3728,
      "##ັ": 3729,
      "##ກ": 3730,
      "##둑": 3731,
      "##ہ": 3732,
      "##ふ": 3733,
      "##ṹ": 3734,
      "##➵": 3735,
      "##ः": 3736,
      "##홀": 3737,
      "##☉": 3738,
      "##̺": 3739,
      "##ަ": 3740,
      "##އ": 3741,
      "##ު": 3742,
      "##މ": 3743,
      "##ީ": 3744,
      "##ٔ": 3745,
      "##ắ": 3746,
      "##ӑ": 3747,
      "##ቅ": 3748,
      "##ӏ": 3749,
      "##♥": 3750,
      "##♡": 3751,
      "##ǐ": 3752,
      "##į": 3753,
      "##️": 3754,
      "##ậ": 3755,
      "##ḷ": 3756,
      "##ሻ": 3757,
      "##থ": 3758,
      "##안": 3759,
      "##ӕ": 3760,
      "##별": 3761,
      "##ẩ": 3762,
      "##ɤ": 3763,
      "##ဓ": 3764,
      "##ိ": 3765,
      "##べ": 3766,
      "##ா": 3767,
      "##க": 3768,
      "##ᒡ": 3769,
      "##ᓗ": 3770,
      "##ᐃ": 3771,
      "##হ": 3772,
      "##ম": 3773,
      "##̞": 3774,
      "##ங": 3775,
      "##ூ": 3776,
      "##ந": 3777,
      "##ⴰ": 3778,
      "##ⵉ": 3779,
      "##ⵖ": 3780,
      "##☆": 3781,
      "##ụ": 3782,
      "##ǭ": 3783,
      "##ზ": 3784,
      "##エ": 3785,
      "##ョ": 3786,
      "##ौ": 3787,
      "##バ": 3788,
      "##デ": 3789,
      "##ሞ": 3790,
      "##ሲ": 3791,
      "##ኵ": 3792,
      "##𞤵": 3793,
      "##ợ": 3794,
      "##ਜ": 3795,
      "##ਬ": 3796,
      "##က": 3797,
      "##း": 3798,
      "##መ": 3799,
      "##խ": 3800,
      "##ȟ": 3801,
      "##＋": 3802,
      "##գ": 3803,
      "##ኖ": 3804,
      "##ົ": 3805,
      "##ລ": 3806,
      "##ܨ": 3807,
      "##ോ": 3808,
      "##ഴ": 3809,
      "##ി": 3810,
      "##ക": 3811,
      "##്": 3812,
      "##ട": 3813,
      "##ὺ": 3814,
      "##𐬵": 3815,
      "##𐬎": 3816,
      "##𐬋": 3817,
      "##チ": 3818,
      "##ँ": 3819,
      "##선": 3820,
      "##민": 3821,
      "##인": 3822,
      "##공": 3823,
      "##국": 3824,
      "##ḡ": 3825,
      "##ṉ": 3826,
      "##ត": 3827,
      "##ិ": 3828,
      "##⅓": 3829,
      "##グ": 3830,
      "##け": 3831,
      "##ٍ": 3832,
      "##ً": 3833,
      "##ኛ": 3834,
      "##ಂ": 3835,
      "##ಗ": 3836,
      "##ಳ": 3837,
      "##ೂ": 3838,
      "##ರ": 3839,
      "##ು": 3840,
      "##가": 3841,
      "##ữ": 3842,
      "##림": 3843,
      "##픽": 3844,
      "##ʣ": 3845,
      "##𐤄": 3846,
      "##𐤅": 3847,
      "##ሥ": 3848,
      "##ष": 3849,
      "##ⲉ": 3850,
      "##ⲧ": 3851,
      "##ⲣ": 3852,
      "##ⲟ": 3853,
      "##ⲥ": 3854,
      "##ຽ": 3855,
      "##ձ": 3856,
      "##ව": 3857,
      "##ේ": 3858,
      "##ど": 3859,
      "##̍": 3860,
      "##ห": 3861,
      "##เ": 3862,
      "##ช": 3863,
      "##ṛ": 3864,
      "##▄": 3865,
      "##ܕ": 3866,
      "##ぬ": 3867,
      "##ņ": 3868,
      "##ォ": 3869,
      "##ኩ": 3870,
      "##ծ": 3871,
      "##る": 3872,
      "##ŕ": 3873,
      "##ံ": 3874,
      "##ῳ": 3875,
      "##ῑ": 3876,
      "##̌": 3877,
      "##ধ": 3878,
      "##ご": 3879,
      "##❤": 3880,
      "##ۍ": 3881,
      "##ឡ": 3882,
      "##ុ": 3883,
      "##ĝ": 3884,
      "##효": 3885,
      "##ማ": 3886,
      "##ڭ": 3887,
      "##ѓ": 3888,
      "##ս": 3889,
      "##տ": 3890,
      "##ɜ": 3891,
      "##ヤ": 3892,
      "##ះ": 3893,
      "##ជ": 3894,
      "##ម": 3895,
      "##ព": 3896,
      "##ぶ": 3897,
      "##さ": 3898,
      "##ろ": 3899,
      "##ハ": 3900,
      "##실": 3901,
      "##음": 3902,
      "##¬": 3903,
      "##ृ": 3904,
      "##ই": 3905,
      "##£": 3906,
      "##պ": 3907,
      "##ﺿ": 3908,
      "##ෞ": 3909,
      "##ሳ": 3910,
      "##じ": 3911,
      "##ざ": 3912,
      "##ぎ": 3913,
      "##ණ": 3914,
      "##ඩ": 3915,
      "##ය": 3916,
      "##¨": 3917,
      "##덕": 3918,
      "##ٰ": 3919,
      "##라": 3920,
      "##ˠ": 3921,
      "##ʌ": 3922,
      "##ᓯ": 3923,
      "##ᐊ": 3924,
      "##ᖅ": 3925,
      "##ባ": 3926,
      "##ህ": 3927,
      "##ߌ": 3928,
      "##߬": 3929,
      "##ߣ": 3930,
      "##ߍ": 3931,
      "##߫": 3932,
      "##ấ": 3933,
      "##ꜜ": 3934,
      "##እ": 3935,
      "##ܓ": 3936,
      "##ܛ": 3937,
      "##ܣ": 3938,
      "##ギ": 3939,
      "##پ": 3940,
      "##ṗ": 3941,
      "##ꜣ": 3942,
      "##ܠ": 3943,
      "##ピ": 3944,
      "##𞤨": 3945,
      "##𞤦": 3946,
      "##𞤤": 3947,
      "##𞤳": 3948,
      "##ኑ": 3949,
      "##メ": 3950,
      "##モ": 3951,
      "##ջ": 3952,
      "##ẖ": 3953,
      "##ʹ": 3954,
      "##ষ": 3955,
      "##ừ": 3956,
      "##ʂ": 3957,
      "##ට": 3958,
      "##ጠ": 3959,
      "##ො": 3960,
      "##ែ": 3961,
      "##ហ": 3962,
      "##𐤍": 3963,
      "##𐤏": 3964,
      "##𐤋": 3965,
      "##레": 3966,
      "##फ": 3967,
      "##パ": 3968,
      "##ズ": 3969,
      "##¼": 3970,
      "##ณ": 3971,
      "##ฐ": 3972,
      "##ป": 3973,
      "##อ": 3974,
      "##ซ": 3975,
      "##ི": 3976,
      "##ᾶ": 3977,
      "##ὰ": 3978,
      "##ሪ": 3979,
      "##ೆ": 3980,
      "##ṱ": 3981,
      "##ば": 3982,
      "##し": 3983,
      "##ญ": 3984,
      "##จ": 3985,
      "##ぃ": 3986,
      "##ዋ": 3987,
      "##ሕ": 3988,
      "##ĉ": 3989,
      "##ǝ": 3990,
      "##ፍ": 3991,
      "##̂": 3992,
      "##ધ": 3993,
      "##િ": 3994,
      "##ય": 3995,
      "##ણ": 3996,
      "##˺": 3997,
      "##ɂ": 3998,
      "##방": 3999,
      "##ూ": 4000,
      "##ర": 4001,
      "##త": 4002,
      "##ి": 4003,
      "##ể": 4004,
      "##ධ": 4005,
      "##න": 4006,
      "##ප": 4007,
      "##ු": 4008,
      "##ே": 4009,
      "##ச": 4010,
      "##ằ": 4011,
      "##려": 4012,
      "##ோ": 4013,
      "##ட": 4014,
      "##ȝ": 4015,
      "##り": 4016,
      "##⁴": 4017,
      "##ゅ": 4018,
      "##∞": 4019,
      "##љ": 4020,
      "##こ": 4021,
      "##ੱ": 4022,
      "##ਲ": 4023,
      "##ὑ": 4024,
      "##ാ": 4025,
      "##ണ": 4026,
      "##★": 4027,
      "##ུ": 4028,
      "##བ": 4029,
      "##ḕ": 4030,
      "##ɳ": 4031,
      "##ް": 4032,
      "##해": 4033,
      "##ホ": 4034,
      "##ঞ": 4035,
      "##চ": 4036,
      "##ຜ": 4037,
      "##자": 4038,
      "##ፈ": 4039,
      "##ጥ": 4040,
      "##ሮ": 4041,
      "##ژ": 4042,
      "##ਨ": 4043,
      "##ਮ": 4044,
      "##ੋ": 4045,
      "##ਹ": 4046,
      "##ู": 4047,
      "##ล": 4048,
      "##ด": 4049,
      "##ం": 4050,
      "##ధ": 4051,
      "##ង": 4052,
      "##គ": 4053,
      "##ද": 4054,
      "##ẵ": 4055,
      "##ፋ": 4056,
      "##ዔ": 4057,
      "##ҙ": 4058,
      "##ȳ": 4059,
      "##̲": 4060,
      "##ʕ": 4061,
      "##∧": 4062,
      "##보": 4063,
      "##ჟ": 4064,
      "##ወ": 4065,
      "##ቂ": 4066,
      "##𐎼": 4067,
      "##𐎶": 4068,
      "##𐏀": 4069,
      "##𐎭": 4070,
      "##𐎠": 4071,
      "##ಡ": 4072,
      "##್": 4073,
      "##ಲ": 4074,
      "##ښ": 4075,
      "##は": 4076,
      "##ស": 4077,
      "##ន": 4078,
      "##ϝ": 4079,
      "##ቤ": 4080,
      "##ద": 4081,
      "##ే": 4082,
      "##శ": 4083,
      "##ḳ": 4084,
      "##ṿ": 4085,
      "##̧": 4086,
      "##♯": 4087,
      "##±": 4088,
      "##آ": 4089,
      "##ک": 4090,
      "##𐬌": 4091,
      "##𐬥": 4092,
      "##ശ": 4093,
      "##സ": 4094,
      "##ത": 4095,
      "##ം": 4096,
      "##ഭ": 4097,
      "##𐬰": 4098,
      "##𐬛": 4099,
      "##𐬃": 4100,
      "##డ": 4101,
      "##ు": 4102,
      "##ຍ": 4103,
      "##홍": 4104,
      "##색": 4105,
      "##☹": 4106,
      "##ค": 4107,
      "##𐍄": 4108,
      "##𐌰": 4109,
      "##𐌿": 4110,
      "##𐌽": 4111,
      "##ƶ": 4112,
      "##ῷ": 4113,
      "##ΐ": 4114,
      "##ẁ": 4115,
      "##ড": 4116,
      "##ሴ": 4117,
      "##ُ": 4118,
      "##텔": 4119,
      "##ょ": 4120,
      "##ニ": 4121,
      "##￼": 4122,
      "##ǰ": 4123,
      "##ứ": 4124,
      "##͇": 4125,
      "##ϲ": 4126,
      "##특": 4127,
      "##업": 4128,
      "##ェ": 4129,
      "##ĺ": 4130,
      "de": 4131,
      "##ra": 4132,
      "##nt": 4133,
      "##os": 4134,
      "##es": 4135,
      "##ia": 4136,
      "##or": 4137,
      "##er": 4138,
      "##ad": 4139,
      "co": 4140,
      "##as": 4141,
      "##ic": 4142,
      "##is": 4143,
      "##al": 4144,
      "##ão": 4145,
      "##ar": 4146,
      "##nd": 4147,
      "##ro": 4148,
      "##id": 4149,
      "##ma": 4150,
      "##in": 4151,
      "com": 4152,
      "##ent": 4153,
      "##io": 4154,
      "do": 4155,
      "##it": 4156,
      "da": 4157,
      "##re": 4158,
      "##el": 4159,
      "se": 4160,
      "es": 4161,
      "em": 4162,
      "##an": 4163,
      "qu": 4164,
      "##en": 4165,
      "##ul": 4166,
      "##am": 4167,
      "##ção": 4168,
      "##em": 4169,
      "##il": 4170,
      "##ta": 4171,
      "no": 4172,
      "##nc": 4173,
      "##ei": 4174,
      "re": 4175,
      "##ol": 4176,
      "uma": 4177,
      "##un": 4178,
      "##im": 4179,
      "##te": 4180,
      "##idad": 4181,
      "por": 4182,
      "que": 4183,
      "pa": 4184,
      "na": 4185,
      "##ado": 4186,
      "##gu": 4187,
      "um": 4188,
      "##ndo": 4189,
      "##on": 4190,
      "##iv": 4191,
      "##ente": 4192,
      "po": 4193,
      "##to": 4194,
      "ma": 4195,
      "pro": 4196,
      "su": 4197,
      "##ica": 4198,
      "##ns": 4199,
      "##ig": 4200,
      "##ant": 4201,
      "##tu": 4202,
      "##oc": 4203,
      "##ha": 4204,
      "fo": 4205,
      "##idade": 4206,
      "19": 4207,
      "##qu": 4208,
      "al": 4209,
      "##ist": 4210,
      "##ab": 4211,
      "##ec": 4212,
      "est": 4213,
      "pr": 4214,
      "##ncia": 4215,
      "##us": 4216,
      "##ada": 4217,
      "##do": 4218,
      "ou": 4219,
      "para": 4220,
      "as": 4221,
      "##ria": 4222,
      "20": 4223,
      "foi": 4224,
      "##ion": 4225,
      "##ras": 4226,
      "##de": 4227,
      "##ação": 4228,
      "##no": 4229,
      "##ac": 4230,
      "##iz": 4231,
      "os": 4232,
      "des": 4233,
      "##et": 4234,
      "como": 4235,
      "##ões": 4236,
      "##at": 4237,
      "##ou": 4238,
      "ex": 4239,
      "pel": 4240,
      "##íp": 4241,
      "##og": 4242,
      "##era": 4243,
      "mun": 4244,
      "##ios": 4245,
      "esp": 4246,
      "dos": 4247,
      "munic": 4248,
      "##ho": 4249,
      "hab": 4250,
      "municíp": 4251,
      "##ico": 4252,
      "##me": 4253,
      "in": 4254,
      "##pul": 4255,
      "##ido": 4256,
      "ca": 4257,
      "##nde": 4258,
      "##eira": 4259,
      "km": 4260,
      "##eiro": 4261,
      "##ess": 4262,
      "##ir": 4263,
      "popul": 4264,
      "##ento": 4265,
      "##ip": 4266,
      "par": 4267,
      "##le": 4268,
      "ap": 4269,
      "##ito": 4270,
      "prov": 4271,
      "sua": 4272,
      "##ional": 4273,
      "##nte": 4274,
      "ter": 4275,
      "##na": 4276,
      "##ros": 4277,
      "##ém": 4278,
      "##ções": 4279,
      "loc": 4280,
      "km²": 4281,
      "con": 4282,
      "##da": 4283,
      "são": 4284,
      "##mente": 4285,
      "at": 4286,
      "ar": 4287,
      "##ru": 4288,
      "##if": 4289,
      "local": 4290,
      "##ram": 4291,
      "##ens": 4292,
      "##ados": 4293,
      "mais": 4294,
      "##ca": 4295,
      "an": 4296,
      "mar": 4297,
      "reg": 4298,
      "##ed": 4299,
      "##antes": 4300,
      "##co": 4301,
      "per": 4302,
      "##íncia": 4303,
      "província": 4304,
      "##ial": 4305,
      "##po": 4306,
      "ao": 4307,
      "ser": 4308,
      "cons": 4309,
      "##ut": 4310,
      "mo": 4311,
      "##mo": 4312,
      "##ida": 4313,
      "##va": 4314,
      "ent": 4315,
      "##rio": 4316,
      "for": 4317,
      "habit": 4318,
      "##ri": 4319,
      "comun": 4320,
      "##ião": 4321,
      "200": 4322,
      "##idades": 4323,
      "##amb": 4324,
      "das": 4325,
      "ch": 4326,
      "##rea": 4327,
      "##ter": 4328,
      "mu": 4329,
      "habitantes": 4330,
      "cas": 4331,
      "##la": 4332,
      "tra": 4333,
      "##ve": 4334,
      "##ores": 4335,
      "##ur": 4336,
      "##om": 4337,
      "te": 4338,
      "##um": 4339,
      "##ce": 4340,
      "área": 4341,
      "##itu": 4342,
      "##ina": 4343,
      "##res": 4344,
      "município": 4345,
      "##ís": 4346,
      "##ça": 4347,
      "##gues": 4348,
      "or": 4349,
      "ant": 4350,
      "##go": 4351,
      "##ência": 4352,
      "nome": 4353,
      "##raf": 4354,
      "##mp": 4355,
      "un": 4356,
      "##éc": 4357,
      "so": 4358,
      "tem": 4359,
      "gra": 4360,
      "fa": 4361,
      "comp": 4362,
      "##nda": 4363,
      "##ista": 4364,
      "##anha": 4365,
      "bras": 4366,
      "##ais": 4367,
      "seu": 4368,
      "##ior": 4369,
      "int": 4370,
      "tamb": 4371,
      "18": 4372,
      "car": 4373,
      "##ass": 4374,
      "também": 4375,
      "cont": 4376,
      "brasil": 4377,
      "##rafia": 4378,
      "prim": 4379,
      "##ers": 4380,
      "##min": 4381,
      "fre": 4382,
      "##ulo": 4383,
      "fu": 4384,
      "##ias": 4385,
      "to": 4386,
      "am": 4387,
      "ro": 4388,
      "le": 4389,
      "##tura": 4390,
      "ba": 4391,
      "região": 4392,
      "ac": 4393,
      "##acional": 4394,
      "##oss": 4395,
      "cidade": 4396,
      "hist": 4397,
      "espanha": 4398,
      "pela": 4399,
      "##ando": 4400,
      "segu": 4401,
      "fil": 4402,
      "entre": 4403,
      "201": 4404,
      "##ória": 4405,
      "##tal": 4406,
      "portu": 4407,
      "##ês": 4408,
      "du": 4409,
      "##lu": 4410,
      "pelo": 4411,
      "##amente": 4412,
      "municípios": 4413,
      "##emb": 4414,
      "cor": 4415,
      "##ib": 4416,
      "não": 4417,
      "##tic": 4418,
      "##rit": 4419,
      "nor": 4420,
      "ab": 4421,
      "##lo": 4422,
      "##tiv": 4423,
      "##ino": 4424,
      "cer": 4425,
      "##du": 4426,
      "era": 4427,
      "localidades": 4428,
      "##ag": 4429,
      "##ografia": 4430,
      "##ver": 4431,
      "dens": 4432,
      "out": 4433,
      "##ela": 4434,
      "dem": 4435,
      "esc": 4436,
      "densidade": 4437,
      "##hec": 4438,
      "esta": 4439,
      "el": 4440,
      "gu": 4441,
      "rio": 4442,
      "estado": 4443,
      "##dos": 4444,
      "imp": 4445,
      "nas": 4446,
      "população": 4447,
      "res": 4448,
      "##adas": 4449,
      "populacional": 4450,
      "fregues": 4451,
      "##íc": 4452,
      "##lia": 4453,
      "##ano": 4454,
      "##pa": 4455,
      "##man": 4456,
      "ass": 4457,
      "##este": 4458,
      "##ez": 4459,
      "##eg": 4460,
      "##ix": 4461,
      "inter": 4462,
      "sant": 4463,
      "fra": 4464,
      "ad": 4465,
      "este": 4466,
      "##pe": 4467,
      "faz": 4468,
      "##tica": 4469,
      "anos": 4470,
      "##he": 4471,
      "##entos": 4472,
      "##so": 4473,
      "en": 4474,
      "##int": 4475,
      "##imento": 4476,
      "história": 4477,
      "##ição": 4478,
      "ob": 4479,
      "cap": 4480,
      "id": 4481,
      "##est": 4482,
      "ele": 4483,
      "cam": 4484,
      "##ja": 4485,
      "##ing": 4486,
      "##bl": 4487,
      "lu": 4488,
      "cast": 4489,
      "##idos": 4490,
      "##titu": 4491,
      "##vo": 4492,
      "pre": 4493,
      "##vel": 4494,
      "##inc": 4495,
      "199": 4496,
      "##que": 4497,
      "conhec": 4498,
      "##inha": 4499,
      "demografia": 4500,
      "sob": 4501,
      "##entes": 4502,
      "di": 4503,
      "##ário": 4504,
      "ver": 4505,
      "##enc": 4506,
      "conc": 4507,
      "##ima": 4508,
      "tor": 4509,
      "##ign": 4510,
      "##ira": 4511,
      "sul": 4512,
      "##amento": 4513,
      "col": 4514,
      "##esso": 4515,
      "##ade": 4516,
      "##gua": 4517,
      "##fer": 4518,
      "##ér": 4519,
      "##ch": 4520,
      "ins": 4521,
      "ag": 4522,
      "##icos": 4523,
      "mil": 4524,
      "cerca": 4525,
      "dist": 4526,
      "##ral": 4527,
      "poss": 4528,
      "##iana": 4529,
      "##ivers": 4530,
      "val": 4531,
      "##vol": 4532,
      "maior": 4533,
      "##eu": 4534,
      "la": 4535,
      "cl": 4536,
      "##iga": 4537,
      "##tos": 4538,
      "##ín": 4539,
      "##00": 4540,
      "##ôn": 4541,
      "##ân": 4542,
      "##ine": 4543,
      "rep": 4544,
      "pol": 4545,
      "##ero": 4546,
      "of": 4547,
      "##almente": 4548,
      "mes": 4549,
      "##bo": 4550,
      "princ": 4551,
      "##ana": 4552,
      "grande": 4553,
      "soc": 4554,
      "cond": 4555,
      "##iu": 4556,
      "##for": 4557,
      "aut": 4558,
      "##ador": 4559,
      "nos": 4560,
      "freguesia": 4561,
      "##embro": 4562,
      "tendo": 4563,
      "até": 4564,
      "##ço": 4565,
      "##icas": 4566,
      "inc": 4567,
      "##tr": 4568,
      "forma": 4569,
      "part": 4570,
      "oc": 4571,
      "##pos": 4572,
      "cent": 4573,
      "##col": 4574,
      "##ga": 4575,
      "dis": 4576,
      "##ária": 4577,
      "mas": 4578,
      "jo": 4579,
      "##ós": 4580,
      "go": 4581,
      "pl": 4582,
      "##ór": 4583,
      "cr": 4584,
      "tr": 4585,
      "##av": 4586,
      "orig": 4587,
      "cria": 4588,
      "pass": 4589,
      "##ár": 4590,
      "vil": 4591,
      "norte": 4592,
      "fe": 4593,
      "localiz": 4594,
      "país": 4595,
      "séc": 4596,
      "##ber": 4597,
      "##nto": 4598,
      "sub": 4599,
      "us": 4600,
      "##ita": 4601,
      "##ard": 4602,
      "pal": 4603,
      "##vi": 4604,
      "sendo": 4605,
      "##ares": 4606,
      "##tico": 4607,
      "##ismo": 4608,
      "man": 4609,
      "rel": 4610,
      "fam": 4611,
      "ju": 4612,
      "parte": 4613,
      "gera": 4614,
      "fund": 4615,
      "rec": 4616,
      "princip": 4617,
      "ind": 4618,
      "15": 4619,
      "pres": 4620,
      "comuna": 4621,
      "##és": 4622,
      "fro": 4623,
      "##iss": 4624,
      "##ração": 4625,
      "met": 4626,
      "##der": 4627,
      "onde": 4628,
      "min": 4629,
      "##cional": 4630,
      "##ge": 4631,
      "198": 4632,
      "##ás": 4633,
      "##nco": 4634,
      "##til": 4635,
      "me": 4636,
      "##per": 4637,
      "##icial": 4638,
      "##has": 4639,
      "sa": 4640,
      "##rito": 4641,
      "il": 4642,
      "##hos": 4643,
      "##resent": 4644,
      "##tru": 4645,
      "atu": 4646,
      "mor": 4647,
      "##eiros": 4648,
      "ital": 4649,
      "bas": 4650,
      "is": 4651,
      "##anto": 4652,
      "século": 4653,
      "197": 4654,
      "seus": 4655,
      "sobre": 4656,
      "##por": 4657,
      "17": 4658,
      "brasileiro": 4659,
      "front": 4660,
      "##itos": 4661,
      "##fe": 4662,
      "qual": 4663,
      "ge": 4664,
      "##rante": 4665,
      "está": 4666,
      "##enas": 4667,
      "quando": 4668,
      "##ie": 4669,
      "##ran": 4670,
      "196": 4671,
      "##das": 4672,
      "bar": 4673,
      "##ogia": 4674,
      "##elho": 4675,
      "##gal": 4676,
      "10": 4677,
      "##ba": 4678,
      "##erra": 4679,
      "##bal": 4680,
      "##aria": 4681,
      "cal": 4682,
      "##ús": 4683,
      "##tas": 4684,
      "dire": 4685,
      "bg": 4686,
      "##elo": 4687,
      "eu": 4688,
      "ano": 4689,
      "##ific": 4690,
      "possu": 4691,
      "bgcol": 4692,
      "bgcolor": 4693,
      "pe": 4694,
      "comunidade": 4695,
      "##ola": 4696,
      "ra": 4697,
      "16": 4698,
      "12": 4699,
      "##indo": 4700,
      "##ona": 4701,
      "roma": 4702,
      "cham": 4703,
      "##ília": 4704,
      "trans": 4705,
      "##ifica": 4706,
      "##ite": 4707,
      "ext": 4708,
      "##ntes": 4709,
      "desen": 4710,
      "estende": 4711,
      "fronteira": 4712,
      "##iano": 4713,
      "vez": 4714,
      "##mas": 4715,
      "franc": 4716,
      "comunas": 4717,
      "jan": 4718,
      "cens": 4719,
      "##ón": 4720,
      "##ivo": 4721,
      "11": 4722,
      "cat": 4723,
      "##imo": 4724,
      "14": 4725,
      "primeiro": 4726,
      "##rac": 4727,
      "durante": 4728,
      "ho": 4729,
      "primeira": 4730,
      "pode": 4731,
      "##je": 4732,
      "##dem": 4733,
      "portugues": 4734,
      "##ício": 4735,
      "real": 4736,
      "##ização": 4737,
      "##fa": 4738,
      "mé": 4739,
      "##ele": 4740,
      "nacional": 4741,
      "##rado": 4742,
      "##ários": 4743,
      "foram": 4744,
      "suas": 4745,
      "segundo": 4746,
      "can": 4747,
      "##idera": 4748,
      "nova": 4749,
      "##iste": 4750,
      "bo": 4751,
      "af": 4752,
      "gru": 4753,
      "##rav": 4754,
      "sal": 4755,
      "##ena": 4756,
      "##dia": 4757,
      "capit": 4758,
      "inf": 4759,
      "italiana": 4760,
      "##gl": 4761,
      "##bol": 4762,
      "##tor": 4763,
      "ess": 4764,
      "##gan": 4765,
      "div": 4766,
      "##pl": 4767,
      "##idas": 4768,
      "produ": 4769,
      "##eric": 4770,
      "##reg": 4771,
      "and": 4772,
      "##rada": 4773,
      "univers": 4774,
      "##1f": 4775,
      "lon": 4776,
      "aos": 4777,
      "the": 4778,
      "##rá": 4779,
      "estu": 4780,
      "estados": 4781,
      "san": 4782,
      "##tes": 4783,
      "outros": 4784,
      "ja": 4785,
      "portugal": 4786,
      "santa": 4787,
      "fer": 4788,
      "##anh": 4789,
      "2000": 4790,
      "lo": 4791,
      "##óp": 4792,
      "##igo": 4793,
      "ed": 4794,
      "vila": 4795,
      "##tiva": 4796,
      "form": 4797,
      "##ju": 4798,
      "##ne": 4799,
      "##úbl": 4800,
      "sem": 4801,
      "hu": 4802,
      "##ura": 4803,
      "##inal": 4804,
      "med": 4805,
      "##ório": 4806,
      "pos": 4807,
      "cul": 4808,
      "autó": 4809,
      "desde": 4810,
      "##gre": 4811,
      "bra": 4812,
      "americ": 4813,
      "##ologia": 4814,
      "##be": 4815,
      "##nas": 4816,
      "nov": 4817,
      "##noma": 4818,
      "desenvol": 4819,
      "janeiro": 4820,
      "##elh": 4821,
      "após": 4822,
      "ta": 4823,
      "##ii": 4824,
      "##con": 4825,
      "jog": 4826,
      "##agem": 4827,
      "enco": 4828,
      "##dor": 4829,
      "sol": 4830,
      "##esa": 4831,
      "##minist": 4832,
      "##anç": 4833,
      "##rib": 4834,
      "oficial": 4835,
      "refer": 4836,
      "administ": 4837,
      "av": 4838,
      "##adores": 4839,
      "##ust": 4840,
      "13": 4841,
      "autónoma": 4842,
      "polí": 4843,
      "##ante": 4844,
      "sede": 4845,
      "liga": 4846,
      "considera": 4847,
      "##dio": 4848,
      "##istas": 4849,
      "pu": 4850,
      "espec": 4851,
      "##ít": 4852,
      "util": 4853,
      "##pera": 4854,
      "pra": 4855,
      "ne": 4856,
      "195": 4857,
      "##inda": 4858,
      "exter": 4859,
      "gover": 4860,
      "depo": 4861,
      "trabal": 4862,
      "cu": 4863,
      "condado": 4864,
      "encont": 4865,
      "portuguesa": 4866,
      "##ól": 4867,
      "depois": 4868,
      "dia": 4869,
      "emp": 4870,
      "ir": 4871,
      "proc": 4872,
      "dez": 4873,
      "##inho": 4874,
      "família": 4875,
      "ped": 4876,
      "##iva": 4877,
      "castela": 4878,
      "##za": 4879,
      "##osa": 4880,
      "##pon": 4881,
      "##iais": 4882,
      "##gar": 4883,
      "##ticas": 4884,
      "mundo": 4885,
      "##ula": 4886,
      "##gem": 4887,
      "dois": 4888,
      "##oca": 4889,
      "distrito": 4890,
      "mon": 4891,
      "##nça": 4892,
      "territ": 4893,
      "já": 4894,
      "202": 4895,
      "##erc": 4896,
      "##êm": 4897,
      "##ências": 4898,
      "fal": 4899,
      "##igu": 4900,
      "tinha": 4901,
      "##uns": 4902,
      "igre": 4903,
      "be": 4904,
      "conhecido": 4905,
      "##ôm": 4906,
      "possui": 4907,
      "ev": 4908,
      "dif": 4909,
      "##óg": 4910,
      "pelos": 4911,
      "muito": 4912,
      "fl": 4913,
      "##eiras": 4914,
      "inclu": 4915,
      "dec": 4916,
      "lín": 4917,
      "mesmo": 4918,
      "ainda": 4919,
      "censo": 4920,
      "pesso": 4921,
      "194": 4922,
      "rece": 4923,
      "liv": 4924,
      "##eno": 4925,
      "nu": 4926,
      "jul": 4927,
      "capital": 4928,
      "##ím": 4929,
      "##itar": 4930,
      "##oria": 4931,
      "nú": 4932,
      "##ên": 4933,
      "povo": 4934,
      "euro": 4935,
      "##ância": 4936,
      "ingl": 4937,
      "hom": 4938,
      "geral": 4939,
      "paulo": 4940,
      "au": 4941,
      "##son": 4942,
      "line": 4943,
      "utiliz": 4944,
      "##vimento": 4945,
      "sen": 4946,
      "##end": 4947,
      "constru": 4948,
      "sim": 4949,
      "##ças": 4950,
      "##tt": 4951,
      "men": 4952,
      "##isão": 4953,
      "início": 4954,
      "exp": 4955,
      "impor": 4956,
      "prof": 4957,
      "del": 4958,
      "##via": 4959,
      "##ental": 4960,
      "##gra": 4961,
      "cos": 4962,
      "vol": 4963,
      "leão": 4964,
      "##st": 4965,
      "super": 4966,
      "##val": 4967,
      "vi": 4968,
      "##mes": 4969,
      "situ": 4970,
      "intern": 4971,
      "def": 4972,
      "##orro": 4973,
      "##up": 4974,
      "grupo": 4975,
      "guerra": 4976,
      "igreja": 4977,
      "193": 4978,
      "##ác": 4979,
      "linear": 4980,
      "come": 4981,
      "unidos": 4982,
      "##ell": 4983,
      "três": 4984,
      "exist": 4985,
      "ol": 4986,
      "##ular": 4987,
      "arqu": 4988,
      "constitu": 4989,
      "tro": 4990,
      "##her": 4991,
      "compos": 4992,
      "set": 4993,
      "ci": 4994,
      "##jo": 4995,
      "2013": 4996,
      "##ério": 4997,
      "apenas": 4998,
      "##bel": 4999,
      "abr": 5000,
      "socorro": 5001,
      "conf": 5002,
      "##forma": 5003,
      "administra": 5004,
      "gal": 5005,
      "rei": 5006,
      "lat": 5007,
      "##itas": 5008,
      "tempo": 5009,
      "ale": 5010,
      "bio": 5011,
      "##ress": 5012,
      "mús": 5013,
      "art": 5014,
      "ligações": 5015,
      "água": 5016,
      "alg": 5017,
      "24": 5018,
      "oeste": 5019,
      "equ": 5020,
      "atrav": 5021,
      "sign": 5022,
      "pert": 5023,
      "##istema": 5024,
      "freguesias": 5025,
      "##tante": 5026,
      "nasc": 5027,
      "##ast": 5028,
      "espéc": 5029,
      "##ric": 5030,
      "##und": 5031,
      "##ío": 5032,
      "mont": 5033,
      "##oso": 5034,
      "##ráf": 5035,
      "##ições": 5036,
      "##vido": 5037,
      "##3e": 5038,
      "##ual": 5039,
      "origem": 5040,
      "25": 5041,
      "externas": 5042,
      "##imentos": 5043,
      "deno": 5044,
      "##ies": 5045,
      "##ível": 5046,
      "estre": 5047,
      "sistema": 5048,
      "mus": 5049,
      "##árias": 5050,
      "ru": 5051,
      "pes": 5052,
      "##mos": 5053,
      "##art": 5054,
      "organ": 5055,
      "econ": 5056,
      "difer": 5057,
      "##se": 5058,
      "##lt": 5059,
      "ur": 5060,
      "num": 5061,
      "teve": 5062,
      "bat": 5063,
      "apresent": 5064,
      "desta": 5065,
      "base": 5066,
      "além": 5067,
      "presid": 5068,
      "et": 5069,
      "##tado": 5070,
      "universidade": 5071,
      "class": 5072,
      "##erg": 5073,
      "cab": 5074,
      "vida": 5075,
      "jos": 5076,
      "outras": 5077,
      "tip": 5078,
      "divers": 5079,
      "##lio": 5080,
      "192": 5081,
      "carac": 5082,
      "vis": 5083,
      "duas": 5084,
      "joão": 5085,
      "contra": 5086,
      "perío": 5087,
      "tur": 5088,
      "centro": 5089,
      "partir": 5090,
      "algu": 5091,
      "cur": 5092,
      "##ense": 5093,
      "represent": 5094,
      "assim": 5095,
      "sido": 5096,
      "institu": 5097,
      "##iam": 5098,
      "pequ": 5099,
      "##ribu": 5100,
      "##ht": 5101,
      "língua": 5102,
      "caracter": 5103,
      "às": 5104,
      "sé": 5105,
      "desc": 5106,
      "ilha": 5107,
      "concelho": 5108,
      "clu": 5109,
      "lei": 5110,
      "torno": 5111,
      "termo": 5112,
      "##ulos": 5113,
      "amb": 5114,
      "##ceu": 5115,
      "##grafia": 5116,
      "##tro": 5117,
      "##reira": 5118,
      "##ável": 5119,
      "jun": 5120,
      "191": 5121,
      "núm": 5122,
      "##veis": 5123,
      "terra": 5124,
      "##tebol": 5125,
      "##ian": 5126,
      "então": 5127,
      "todos": 5128,
      "ép": 5129,
      "##quer": 5130,
      "através": 5131,
      "inv": 5132,
      "##uc": 5133,
      "cant": 5134,
      "denomin": 5135,
      "##jet": 5136,
      "##ndes": 5137,
      "der": 5138,
      "futebol": 5139,
      "##ionais": 5140,
      "publ": 5141,
      "alguns": 5142,
      "ela": 5143,
      "território": 5144,
      "lin": 5145,
      "período": 5146,
      "déc": 5147,
      "alem": 5148,
      "##rg": 5149,
      "ara": 5150,
      "filho": 5151,
      "partic": 5152,
      "##emp": 5153,
      "##iza": 5154,
      "st": 5155,
      "lanç": 5156,
      "roc": 5157,
      "##guês": 5158,
      "##ord": 5159,
      "##esta": 5160,
      "br": 5161,
      "mic": 5162,
      "##ública": 5163,
      "##emente": 5164,
      "mul": 5165,
      "##tural": 5166,
      "baix": 5167,
      "##atro": 5168,
      "cheg": 5169,
      "fic": 5170,
      "align": 5171,
      "##ticos": 5172,
      "##ordo": 5173,
      "fac": 5174,
      "poder": 5175,
      "conhecida": 5176,
      "##íf": 5177,
      "segunda": 5178,
      "ga": 5179,
      "##bro": 5180,
      "bem": 5181,
      "ál": 5182,
      "empres": 5183,
      "melh": 5184,
      "há": 5185,
      "suc": 5186,
      "##inh": 5187,
      "prop": 5188,
      "época": 5189,
      "português": 5190,
      "##dic": 5191,
      "##erv": 5192,
      "##eb": 5193,
      "inte": 5194,
      "30": 5195,
      "gre": 5196,
      "##pol": 5197,
      "22": 5198,
      "podem": 5199,
      "aqu": 5200,
      "ocor": 5201,
      "gen": 5202,
      "domin": 5203,
      "josé": 5204,
      "dezembro": 5205,
      "cidades": 5206,
      "casa": 5207,
      "##rar": 5208,
      "##ton": 5209,
      "her": 5210,
      "##ruz": 5211,
      "cha": 5212,
      "##pend": 5213,
      "##isto": 5214,
      "reino": 5215,
      "escrit": 5216,
      "santo": 5217,
      "##enh": 5218,
      "##sa": 5219,
      "##ala": 5220,
      "vezes": 5221,
      "##ase": 5222,
      "21": 5223,
      "tar": 5224,
      "significa": 5225,
      "apro": 5226,
      "##iores": 5227,
      "##ins": 5228,
      "antiga": 5229,
      "estão": 5230,
      "##él": 5231,
      "filme": 5232,
      "atual": 5233,
      "##ze": 5234,
      "##eram": 5235,
      "##arca": 5236,
      "##ndia": 5237,
      "##osto": 5238,
      "vo": 5239,
      "viv": 5240,
      "ib": 5241,
      "porto": 5242,
      "americano": 5243,
      "principal": 5244,
      "##xim": 5245,
      "##ide": 5246,
      "milh": 5247,
      "##edade": 5248,
      "receb": 5249,
      "antes": 5250,
      "##iro": 5251,
      "##ight": 5252,
      "##ónio": 5253,
      "inic": 5254,
      "##ilo": 5255,
      "##ical": 5256,
      "hoje": 5257,
      "maria": 5258,
      "##ossa": 5259,
      "##ocia": 5260,
      "##ença": 5261,
      "estad": 5262,
      "acordo": 5263,
      "governo": 5264,
      "##tação": 5265,
      "união": 5266,
      "##ál": 5267,
      "lim": 5268,
      "##ipe": 5269,
      "final": 5270,
      "administrativa": 5271,
      "ori": 5272,
      "2011": 5273,
      "23": 5274,
      "mund": 5275,
      "número": 5276,
      "##ática": 5277,
      "##inta": 5278,
      "tornou": 5279,
      "##itude": 5280,
      "total": 5281,
      "apar": 5282,
      "let": 5283,
      "##rie": 5284,
      "##ços": 5285,
      "##xa": 5286,
      "presidente": 5287,
      "mat": 5288,
      "metros": 5289,
      "pad": 5290,
      "marc": 5291,
      "ve": 5292,
      "cada": 5293,
      "##ído": 5294,
      "antig": 5295,
      "histór": 5296,
      "2007": 5297,
      "fun": 5298,
      "banda": 5299,
      "estim": 5300,
      "##ice": 5301,
      "jor": 5302,
      "rib": 5303,
      "##ece": 5304,
      "din": 5305,
      "tít": 5306,
      "quais": 5307,
      "conju": 5308,
      "##uz": 5309,
      "neg": 5310,
      "##tivo": 5311,
      "##anc": 5312,
      "mod": 5313,
      "pessoas": 5314,
      "próp": 5315,
      "##ost": 5316,
      "2001": 5317,
      "##op": 5318,
      "últ": 5319,
      "##érica": 5320,
      "contin": 5321,
      "patr": 5322,
      "dep": 5323,
      "devido": 5324,
      "passou": 5325,
      "ii": 5326,
      "vários": 5327,
      "ber": 5328,
      "##emo": 5329,
      "##manha": 5330,
      "defin": 5331,
      "seja": 5332,
      "band": 5333,
      "tec": 5334,
      "especial": 5335,
      "##izado": 5336,
      "irm": 5337,
      "##aro": 5338,
      "##ik": 5339,
      "música": 5340,
      "lis": 5341,
      "##enta": 5342,
      "abril": 5343,
      "##rica": 5344,
      "##ução": 5345,
      "##rem": 5346,
      "er": 5347,
      "##inas": 5348,
      "produz": 5349,
      "26": 5350,
      "##esse": 5351,
      "##yo": 5352,
      "27": 5353,
      "principais": 5354,
      "crist": 5355,
      "##emas": 5356,
      "lista": 5357,
      "cruz": 5358,
      "lib": 5359,
      "ún": 5360,
      "2021": 5361,
      "##isco": 5362,
      "julho": 5363,
      "##gio": 5364,
      "ordem": 5365,
      "álb": 5366,
      "república": 5367,
      "##iões": 5368,
      "##eros": 5369,
      "##ill": 5370,
      "##ane": 5371,
      "ha": 5372,
      "encontra": 5373,
      "##ves": 5374,
      "associa": 5375,
      "29": 5376,
      "##eral": 5377,
      "##ph": 5378,
      "public": 5379,
      "fede": 5380,
      "mundial": 5381,
      "##th": 5382,
      "2004": 5383,
      "países": 5384,
      "##bora": 5385,
      "pi": 5386,
      "pont": 5387,
      "##unha": 5388,
      "localiza": 5389,
      "##rou": 5390,
      "regist": 5391,
      "31": 5392,
      "eram": 5393,
      "internacional": 5394,
      "##isa": 5395,
      "chamado": 5396,
      "frança": 5397,
      "28": 5398,
      "##áb": 5399,
      "##ída": 5400,
      "desco": 5401,
      "cin": 5402,
      "conv": 5403,
      "lugar": 5404,
      "palav": 5405,
      "sec": 5406,
      "desenvolvimento": 5407,
      "setembro": 5408,
      "pertenc": 5409,
      "##tou": 5410,
      "sp": 5411,
      "##mit": 5412,
      "pen": 5413,
      "relig": 5414,
      "##usa": 5415,
      "##ãos": 5416,
      "sil": 5417,
      "bu": 5418,
      "##gos": 5419,
      "março": 5420,
      "lit": 5421,
      "pap": 5422,
      "##hora": 5423,
      "##ari": 5424,
      "comum": 5425,
      "maio": 5426,
      "inde": 5427,
      "##omb": 5428,
      "f1f": 5429,
      "##1f1": 5430,
      "f1f1f1": 5431,
      "##ulas": 5432,
      "##tubro": 5433,
      "tal": 5434,
      "outubro": 5435,
      "##one": 5436,
      "##cha": 5437,
      "fís": 5438,
      "##âm": 5439,
      "série": 5440,
      "189": 5441,
      "##nca": 5442,
      "##ivos": 5443,
      "clube": 5444,
      "lig": 5445,
      "##ália": 5446,
      "geografia": 5447,
      "embora": 5448,
      "começ": 5449,
      "##cio": 5450,
      "leste": 5451,
      "##gue": 5452,
      "algumas": 5453,
      "meio": 5454,
      "person": 5455,
      "##tar": 5456,
      "campe": 5457,
      "##ogo": 5458,
      "alemanha": 5459,
      "melhor": 5460,
      "##zo": 5461,
      "novo": 5462,
      "estabel": 5463,
      "estimada": 5464,
      "junho": 5465,
      "localizada": 5466,
      "carreira": 5467,
      "camp": 5468,
      "##ística": 5469,
      "design": 5470,
      "senhora": 5471,
      "##des": 5472,
      "década": 5473,
      "numa": 5474,
      "it": 5475,
      "pedro": 5476,
      "##uco": 5477,
      "enqu": 5478,
      "exemp": 5479,
      "mad": 5480,
      "resul": 5481,
      "exemplo": 5482,
      "milhões": 5483,
      "popular": 5484,
      "patrim": 5485,
      "##ang": 5486,
      "##grama": 5487,
      "pai": 5488,
      "várias": 5489,
      "##issão": 5490,
      "agosto": 5491,
      "quatro": 5492,
      "influ": 5493,
      "mal": 5494,
      "##ime": 5495,
      "im": 5496,
      "rev": 5497,
      "##ód": 5498,
      "particip": 5499,
      "novembro": 5500,
      "espécies": 5501,
      "campo": 5502,
      "##ificação": 5503,
      "muitos": 5504,
      "independ": 5505,
      "##íg": 5506,
      "##ológ": 5507,
      "##gens": 5508,
      "todo": 5509,
      "##icação": 5510,
      "primeiros": 5511,
      "estru": 5512,
      "império": 5513,
      "dent": 5514,
      "gr": 5515,
      "grandes": 5516,
      "##deste": 5517,
      "biografia": 5518,
      "xvi": 5519,
      "##boa": 5520,
      "recon": 5521,
      "##ações": 5522,
      "##nal": 5523,
      "vers": 5524,
      "eng": 5525,
      "cir": 5526,
      "atualmente": 5527,
      "mac": 5528,
      "##gn": 5529,
      "alc": 5530,
      "190": 5531,
      "##dade": 5532,
      "##iente": 5533,
      "##izada": 5534,
      "edu": 5535,
      "catal": 5536,
      "enquanto": 5537,
      "##dut": 5538,
      "##ret": 5539,
      "lisboa": 5540,
      "opera": 5541,
      "##guas": 5542,
      "##ográf": 5543,
      "##vam": 5544,
      "##20": 5545,
      "##én": 5546,
      "recebeu": 5547,
      "brit": 5548,
      "só": 5549,
      "##are": 5550,
      "tele": 5551,
      "##xo": 5552,
      "cres": 5553,
      "##inos": 5554,
      "bel": 5555,
      "terc": 5556,
      "conta": 5557,
      "vit": 5558,
      "serra": 5559,
      "conjunto": 5560,
      "##amentos": 5561,
      "vale": 5562,
      "##land": 5563,
      "sh": 5564,
      "##amo": 5565,
      "via": 5566,
      "##anos": 5567,
      "geralmente": 5568,
      "##ilidade": 5569,
      "##entemente": 5570,
      "pelas": 5571,
      "##sia": 5572,
      "europe": 5573,
      "ben": 5574,
      "##car": 5575,
      "gên": 5576,
      "##our": 5577,
      "##cia": 5578,
      "##icamente": 5579,
      "##rat": 5580,
      "##pec": 5581,
      "nossa": 5582,
      "monte": 5583,
      "localizado": 5584,
      "minas": 5585,
      "corpo": 5586,
      "##inhos": 5587,
      "ps": 5588,
      "##teg": 5589,
      "ref": 5590,
      "alto": 5591,
      "eventos": 5592,
      "considerado": 5593,
      "contro": 5594,
      "##ônio": 5595,
      "social": 5596,
      "##au": 5597,
      "castelo": 5598,
      "pró": 5599,
      "dom": 5600,
      "lí": 5601,
      "ativ": 5602,
      "alemão": 5603,
      "sab": 5604,
      "brasileira": 5605,
      "fever": 5606,
      "antigo": 5607,
      "tre": 5608,
      "##iormente": 5609,
      "##manos": 5610,
      "servi": 5611,
      "origin": 5612,
      "##ades": 5613,
      "morte": 5614,
      "objet": 5615,
      "##omia": 5616,
      "fevereiro": 5617,
      "##ônia": 5618,
      "sof": 5619,
      "estabelec": 5620,
      "##quia": 5621,
      "disc": 5622,
      "começou": 5623,
      "cultura": 5624,
      "enc": 5625,
      "urb": 5626,
      "nasceu": 5627,
      "##tantes": 5628,
      "##ânt": 5629,
      "##aram": 5630,
      "muitas": 5631,
      "junt": 5632,
      "principalmente": 5633,
      "programa": 5634,
      "##cel": 5635,
      "título": 5636,
      "aco": 5637,
      "média": 5638,
      "##ire": 5639,
      "right": 5640,
      "##cl": 5641,
      "criado": 5642,
      "##fafa": 5643,
      "bac": 5644,
      "govern": 5645,
      "bal": 5646,
      "##adamente": 5647,
      "##bra": 5648,
      "tipo": 5649,
      "##reu": 5650,
      "fafafa": 5651,
      "conse": 5652,
      "##ísticas": 5653,
      "central": 5654,
      "nec": 5655,
      "colon": 5656,
      "##dou": 5657,
      "feira": 5658,
      "dados": 5659,
      "públ": 5660,
      "##ich": 5661,
      "elem": 5662,
      "frequ": 5663,
      "quad": 5664,
      "##ron": 5665,
      "romana": 5666,
      "altitu": 5667,
      "costa": 5668,
      "lev": 5669,
      "##intes": 5670,
      "tu": 5671,
      "inglês": 5672,
      "memb": 5673,
      "fim": 5674,
      "idade": 5675,
      "uso": 5676,
      "##iol": 5677,
      "plant": 5678,
      "##ificado": 5679,
      "##iou": 5680,
      "trabalho": 5681,
      "terras": 5682,
      "escola": 5683,
      "moder": 5684,
      "##ães": 5685,
      "2010": 5686,
      "##duz": 5687,
      "beyo": 5688,
      "torna": 5689,
      "##ânia": 5690,
      "188": 5691,
      "eles": 5692,
      "bair": 5693,
      "obs": 5694,
      "longo": 5695,
      "apl": 5696,
      "mulher": 5697,
      "mol": 5698,
      "##íl": 5699,
      "quím": 5700,
      "minist": 5701,
      "chamada": 5702,
      "##ore": 5703,
      "política": 5704,
      "##bre": 5705,
      "huma": 5706,
      "outro": 5707,
      "integ": 5708,
      "importante": 5709,
      "##ensão": 5710,
      "ven": 5711,
      "##ise": 5712,
      "américa": 5713,
      "poster": 5714,
      "tom": 5715,
      "##ps": 5716,
      "ima": 5717,
      "ang": 5718,
      "militar": 5719,
      "esse": 5720,
      "prec": 5721,
      "maioria": 5722,
      "##eração": 5723,
      "beyonc": 5724,
      "elev": 5725,
      "capela": 5726,
      "##jeto": 5727,
      "impera": 5728,
      "produção": 5729,
      "##los": 5730,
      "termin": 5731,
      "altitude": 5732,
      "álbum": 5733,
      "partido": 5734,
      "##sos": 5735,
      "ide": 5736,
      "vel": 5737,
      "data": 5738,
      "varia": 5739,
      "atl": 5740,
      "conce": 5741,
      "2003": 5742,
      "subs": 5743,
      "tri": 5744,
      "##itor": 5745,
      "ponto": 5746,
      "##gão": 5747,
      "auto": 5748,
      "##fo": 5749,
      "civ": 5750,
      "gol": 5751,
      "mart": 5752,
      "##alha": 5753,
      "deter": 5754,
      "##ka": 5755,
      "##ilh": 5756,
      "##rão": 5757,
      "##ânica": 5758,
      "gerais": 5759,
      "europa": 5760,
      "##dores": 5761,
      "##uel": 5762,
      "processo": 5763,
      "##iar": 5764,
      "produt": 5765,
      "japon": 5766,
      "comerc": 5767,
      "ger": 5768,
      "##pre": 5769,
      "jogos": 5770,
      "fin": 5771,
      "joh": 5772,
      "##ind": 5773,
      "50": 5774,
      "##turas": 5775,
      "pesqu": 5776,
      "187": 5777,
      "simpl": 5778,
      "cient": 5779,
      "##vem": 5780,
      "filmes": 5781,
      "francisco": 5782,
      "instituto": 5783,
      "##reas": 5784,
      "autor": 5785,
      "movimento": 5786,
      "##into": 5787,
      "##esar": 5788,
      "papa": 5789,
      "##10": 5790,
      "seguintes": 5791,
      "figu": 5792,
      "e3e": 5793,
      "nesta": 5794,
      "ocup": 5795,
      "##3e3": 5796,
      "e3e3e3": 5797,
      "mass": 5798,
      "##enha": 5799,
      "disp": 5800,
      "##essor": 5801,
      "va": 5802,
      "son": 5803,
      "hor": 5804,
      "##ff": 5805,
      "##ila": 5806,
      "trabalh": 5807,
      "##ex": 5808,
      "##ética": 5809,
      "anter": 5810,
      "##iado": 5811,
      "propri": 5812,
      "39": 5813,
      "natural": 5814,
      "revol": 5815,
      "quar": 5816,
      "ce": 5817,
      "186": 5818,
      "bor": 5819,
      "paul": 5820,
      "surg": 5821,
      "##etros": 5822,
      "francês": 5823,
      "##rias": 5824,
      "ilhas": 5825,
      "leg": 5826,
      "##ía": 5827,
      "escol": 5828,
      "obra": 5829,
      "fica": 5830,
      "maiores": 5831,
      "ens": 5832,
      "##ach": 5833,
      "gl": 5834,
      "conqu": 5835,
      "##nder": 5836,
      "livro": 5837,
      "romano": 5838,
      "político": 5839,
      "ocid": 5840,
      "má": 5841,
      "comarca": 5842,
      "usado": 5843,
      "isso": 5844,
      "2002": 5845,
      "necess": 5846,
      "cine": 5847,
      "hav": 5848,
      "sent": 5849,
      "merc": 5850,
      "diferentes": 5851,
      "beyoncé": 5852,
      "##ânico": 5853,
      "alde": 5854,
      "##écn": 5855,
      "tex": 5856,
      "essa": 5857,
      "menos": 5858,
      "##mento": 5859,
      "cel": 5860,
      "185": 5861,
      "##ier": 5862,
      "nº": 5863,
      "##etro": 5864,
      "##mb": 5865,
      "anima": 5866,
      "incluindo": 5867,
      "##enção": 5868,
      "##inado": 5869,
      "direito": 5870,
      "qualquer": 5871,
      "ep": 5872,
      "dias": 5873,
      "##tivas": 5874,
      "52": 5875,
      "##ea": 5876,
      "construção": 5877,
      "volta": 5878,
      "apesar": 5879,
      "palavra": 5880,
      "##wa": 5881,
      "##inte": 5882,
      "todas": 5883,
      "long": 5884,
      "bol": 5885,
      "##iel": 5886,
      "##les": 5887,
      "aproxim": 5888,
      "tarde": 5889,
      "hid": 5890,
      "empresa": 5891,
      "comple": 5892,
      "fundada": 5893,
      "património": 5894,
      "not": 5895,
      "100": 5896,
      "##idae": 5897,
      "quil": 5898,
      "soci": 5899,
      "grav": 5900,
      "##veu": 5901,
      "fez": 5902,
      "catalunha": 5903,
      "##45": 5904,
      "deus": 5905,
      "##ança": 5906,
      "amp": 5907,
      "##all": 5908,
      "1999": 5909,
      "bad": 5910,
      "lingu": 5911,
      "lar": 5912,
      "mater": 5913,
      "inicial": 5914,
      "##áss": 5915,
      "flores": 5916,
      "pois": 5917,
      "apo": 5918,
      "divid": 5919,
      "##cle": 5920,
      "espanh": 5921,
      "##ry": 5922,
      "2005": 5923,
      "##nos": 5924,
      "##iment": 5925,
      "voc": 5926,
      "têm": 5927,
      "toda": 5928,
      "estadual": 5929,
      "lhe": 5930,
      "aragão": 5931,
      "informa": 5932,
      "mancha": 5933,
      "000": 5934,
      "jornal": 5935,
      "membros": 5936,
      "##gia": 5937,
      "reconhec": 5938,
      "educ": 5939,
      "cinco": 5940,
      "fundado": 5941,
      "rock": 5942,
      "az": 5943,
      "##cos": 5944,
      "espa": 5945,
      "índ": 5946,
      "interior": 5947,
      "porém": 5948,
      "##étr": 5949,
      "circ": 5950,
      "##mar": 5951,
      "func": 5952,
      "bl": 5953,
      "##abo": 5954,
      "##ivamente": 5955,
      "diversos": 5956,
      "determin": 5957,
      "simples": 5958,
      "##aterra": 5959,
      "características": 5960,
      "##olo": 5961,
      "regiões": 5962,
      "municip": 5963,
      "criação": 5964,
      "sex": 5965,
      "estud": 5966,
      "prêm": 5967,
      "##ence": 5968,
      "##ustria": 5969,
      "suí": 5970,
      "prog": 5971,
      "resid": 5972,
      "##reto": 5973,
      "40": 5974,
      "##ques": 5975,
      "prefe": 5976,
      "he": 5977,
      "##uro": 5978,
      "técn": 5979,
      "2006": 5980,
      "##iram": 5981,
      "che": 5982,
      "rede": 5983,
      "arg": 5984,
      "##eta": 5985,
      "espécie": 5986,
      "coma": 5987,
      "metro": 5988,
      "ama": 5989,
      "ibge": 5990,
      "espor": 5991,
      "lado": 5992,
      "##eo": 5993,
      "catól": 5994,
      "fol": 5995,
      "tradic": 5996,
      "cristo": 5997,
      "rá": 5998,
      "faze": 5999,
      "##eza": 6000,
      "bur": 6001,
      "xix": 6002,
      "rad": 6003,
      "##ti": 6004,
      "antigas": 6005,
      "nav": 6006,
      "##icações": 6007,
      "oce": 6008,
      "##pira": 6009,
      "mant": 6010,
      "inglaterra": 6011,
      "##ys": 6012,
      "criada": 6013,
      "fr": 6014,
      "##aco": 6015,
      "lago": 6016,
      "câ": 6017,
      "gar": 6018,
      "instru": 6019,
      "##bur": 6020,
      "doc": 6021,
      "##manas": 6022,
      "relação": 6023,
      "##80": 6024,
      "##ardo": 6025,
      "cober": 6026,
      "estava": 6027,
      "##pons": 6028,
      "bandeira": 6029,
      "imperador": 6030,
      "##áveis": 6031,
      "ado": 6032,
      "alta": 6033,
      "federal": 6034,
      "tel": 6035,
      "linha": 6036,
      "zona": 6037,
      "estrutura": 6038,
      "183": 6039,
      "respons": 6040,
      "sta": 6041,
      "deix": 6042,
      "##ãe": 6043,
      "pot": 6044,
      "religios": 6045,
      "distribu": 6046,
      "##ua": 6047,
      "vir": 6048,
      "economia": 6049,
      "arte": 6050,
      "mãe": 6051,
      "##tanto": 6052,
      "##ácio": 6053,
      "##ke": 6054,
      "##acion": 6055,
      "dentro": 6056,
      "depart": 6057,
      "pouco": 6058,
      "##di": 6059,
      "quase": 6060,
      "sist": 6061,
      "##agens": 6062,
      "junto": 6063,
      "##ixo": 6064,
      "##eses": 6065,
      "caso": 6066,
      "##vos": 6067,
      "energ": 6068,
      "##etr": 6069,
      "##gas": 6070,
      "##ivas": 6071,
      "##eria": 6072,
      "ferro": 6073,
      "grego": 6074,
      "formação": 6075,
      "cresc": 6076,
      "bus": 6077,
      "exec": 6078,
      "##izar": 6079,
      "semp": 6080,
      "mesma": 6081,
      "##encial": 6082,
      "most": 6083,
      "calend": 6084,
      "hen": 6085,
      "##11": 6086,
      "instal": 6087,
      "diversas": 6088,
      "si": 6089,
      "##rados": 6090,
      "gênero": 6091,
      "geográf": 6092,
      "##ritos": 6093,
      "bis": 6094,
      "##enos": 6095,
      "##tivos": 6096,
      "ban": 6097,
      "bairro": 6098,
      "##50": 6099,
      "ret": 6100,
      "op": 6101,
      "sucesso": 6102,
      "sc": 6103,
      "existem": 6104,
      "conte": 6105,
      "iii": 6106,
      "forte": 6107,
      "express": 6108,
      "obras": 6109,
      "sch": 6110,
      "aproximadamente": 6111,
      "##uta": 6112,
      "##nia": 6113,
      "acad": 6114,
      "tanto": 6115,
      "cinema": 6116,
      "outra": 6117,
      "##rais": 6118,
      "categ": 6119,
      "th": 6120,
      "batalha": 6121,
      "##ans": 6122,
      "sac": 6123,
      "##red": 6124,
      "##ara": 6125,
      "##eix": 6126,
      "web": 6127,
      "##pas": 6128,
      "norm": 6129,
      "sempre": 6130,
      "calendário": 6131,
      "center": 6132,
      "har": 6133,
      "corr": 6134,
      "carlos": 6135,
      "##eceu": 6136,
      "civil": 6137,
      "##íveis": 6138,
      "aç": 6139,
      "##40": 6140,
      "deste": 6141,
      "##ínio": 6142,
      "jogo": 6143,
      "áf": 6144,
      "diz": 6145,
      "áfrica": 6146,
      "##hia": 6147,
      "torn": 6148,
      "##atos": 6149,
      "##íde": 6150,
      "sur": 6151,
      "oficialmente": 6152,
      "descober": 6153,
      "engenh": 6154,
      "##ud": 6155,
      "##emin": 6156,
      "pré": 6157,
      "cé": 6158,
      "##érc": 6159,
      "ouro": 6160,
      "##essão": 6161,
      "##ava": 6162,
      "on": 6163,
      "posteriormente": 6164,
      "lou": 6165,
      "jes": 6166,
      "compet": 6167,
      "econôm": 6168,
      "1998": 6169,
      "superior": 6170,
      "bon": 6171,
      "vic": 6172,
      "##íb": 6173,
      "divisão": 6174,
      "##ace": 6175,
      "##órios": 6176,
      "##polit": 6177,
      "##onato": 6178,
      "glo": 6179,
      "32": 6180,
      "##ativa": 6181,
      "teoria": 6182,
      "##ândia": 6183,
      "##70": 6184,
      "xx": 6185,
      "letra": 6186,
      "##od": 6187,
      "jap": 6188,
      "grupos": 6189,
      "telev": 6190,
      "dir": 6191,
      "entanto": 6192,
      "ganh": 6193,
      "verm": 6194,
      "verde": 6195,
      "importantes": 6196,
      "exper": 6197,
      "animais": 6198,
      "rus": 6199,
      "limit": 6200,
      "próx": 6201,
      "função": 6202,
      "vas": 6203,
      "##tur": 6204,
      "##entar": 6205,
      "tempera": 6206,
      "top": 6207,
      "eg": 6208,
      "##par": 6209,
      "##essa": 6210,
      "relacion": 6211,
      "suíça": 6212,
      "atr": 6213,
      "serv": 6214,
      "professor": 6215,
      "##elas": 6216,
      "##radas": 6217,
      "andal": 6218,
      "perman": 6219,
      "alf": 6220,
      "povoado": 6221,
      "luz": 6222,
      "##form": 6223,
      "##ts": 6224,
      "ponte": 6225,
      "##ná": 6226,
      "envol": 6227,
      "ident": 6228,
      "nível": 6229,
      "força": 6230,
      "estudos": 6231,
      "caus": 6232,
      "científ": 6233,
      "fundação": 6234,
      "##pt": 6235,
      "organização": 6236,
      "formar": 6237,
      "itália": 6238,
      "##ya": 6239,
      "##entais": 6240,
      "##ático": 6241,
      "municipal": 6242,
      "pá": 6243,
      "metropolit": 6244,
      "quem": 6245,
      "alb": 6246,
      "extinta": 6247,
      "censos": 6248,
      "49": 6249,
      "##imos": 6250,
      "fazer": 6251,
      "##let": 6252,
      "paris": 6253,
      "rom": 6254,
      "##ole": 6255,
      "aus": 6256,
      "##tria": 6257,
      "##arina": 6258,
      "53": 6259,
      "36": 6260,
      "americana": 6261,
      "canad": 6262,
      "cél": 6263,
      "2012": 6264,
      "65": 6265,
      "##óm": 6266,
      "terminou": 6267,
      "35": 6268,
      "andaluz": 6269,
      "##ultura": 6270,
      "mec": 6271,
      "original": 6272,
      "inicia": 6273,
      "deve": 6274,
      "único": 6275,
      "##mara": 6276,
      "crí": 6277,
      "japão": 6278,
      "pt": 6279,
      "ph": 6280,
      "comb": 6281,
      "público": 6282,
      "eleito": 6283,
      "explo": 6284,
      "##den": 6285,
      "prote": 6286,
      "##fia": 6287,
      "papel": 6288,
      "havia": 6289,
      "espaço": 6290,
      "33": 6291,
      "exérc": 6292,
      "64": 6293,
      "##uí": 6294,
      "sepa": 6295,
      "cantão": 6296,
      "tecn": 6297,
      "mit": 6298,
      "##mina": 6299,
      "caval": 6300,
      "##ki": 6301,
      "##avam": 6302,
      "andaluzia": 6303,
      "##tamente": 6304,
      "energia": 6305,
      "áreas": 6306,
      "matem": 6307,
      "##nce": 6308,
      "##uto": 6309,
      "1960": 6310,
      "hip": 6311,
      "pac": 6312,
      "nordeste": 6313,
      "bom": 6314,
      "lomb": 6315,
      "##una": 6316,
      "referências": 6317,
      "cit": 6318,
      "john": 6319,
      "aju": 6320,
      "comput": 6321,
      "denominada": 6322,
      "iv": 6323,
      "branco": 6324,
      "##ür": 6325,
      "aero": 6326,
      "substitu": 6327,
      "campeonato": 6328,
      "lug": 6329,
      "##ique": 6330,
      "sistemas": 6331,
      "##ese": 6332,
      "parque": 6333,
      "##ardia": 6334,
      "departamento": 6335,
      "##21": 6336,
      "efe": 6337,
      "aber": 6338,
      "##usão": 6339,
      "ita": 6340,
      "quant": 6341,
      "companh": 6342,
      "profiss": 6343,
      "ocidental": 6344,
      "##imin": 6345,
      "estando": 6346,
      "dirig": 6347,
      "oliv": 6348,
      "baixo": 6349,
      "##arra": 6350,
      "utilizado": 6351,
      "docum": 6352,
      "flu": 6353,
      "liber": 6354,
      "##tados": 6355,
      "deu": 6356,
      "copa": 6357,
      "latim": 6358,
      "homem": 6359,
      "wil": 6360,
      "china": 6361,
      "mud": 6362,
      "valenc": 6363,
      "aum": 6364,
      "plan": 6365,
      "física": 6366,
      "alexa": 6367,
      "##ons": 6368,
      "pint": 6369,
      "dest": 6370,
      "fonte": 6371,
      "histórico": 6372,
      "##ãs": 6373,
      "quanto": 6374,
      "vig": 6375,
      "##fic": 6376,
      "##14": 6377,
      "60": 6378,
      "##tus": 6379,
      "indiv": 6380,
      "transpor": 6381,
      "filha": 6382,
      "latitude": 6383,
      "##ame": 6384,
      "pens": 6385,
      "##ture": 6386,
      "corres": 6387,
      "elementos": 6388,
      "versão": 6389,
      "correspo": 6390,
      "##cion": 6391,
      "##ko": 6392,
      "##adura": 6393,
      "process": 6394,
      "jac": 6395,
      "rod": 6396,
      "##ive": 6397,
      "##bes": 6398,
      "##elos": 6399,
      "1970": 6400,
      "greg": 6401,
      "projeto": 6402,
      "méd": 6403,
      "gén": 6404,
      "##nta": 6405,
      "próprio": 6406,
      "tipos": 6407,
      "1990": 6408,
      "estilo": 6409,
      "homen": 6410,
      "situada": 6411,
      "##cas": 6412,
      "##13": 6413,
      "conde": 6414,
      "localidade": 6415,
      "lugares": 6416,
      "##éria": 6417,
      "sociedade": 6418,
      "##ulares": 6419,
      "##ot": 6420,
      "pla": 6421,
      "arquite": 6422,
      "##ania": 6423,
      "ficou": 6424,
      "começa": 6425,
      "considerada": 6426,
      "superf": 6427,
      "dar": 6428,
      "##ístico": 6429,
      "remo": 6430,
      "pais": 6431,
      "escre": 6432,
      "permit": 6433,
      "hidro": 6434,
      "migu": 6435,
      "viz": 6436,
      "##icais": 6437,
      "bahia": 6438,
      "##berg": 6439,
      "43": 6440,
      "##gon": 6441,
      "##br": 6442,
      "longitude": 6443,
      "##ônimo": 6444,
      "ferna": 6445,
      "fran": 6446,
      "##ws": 6447,
      "paraná": 6448,
      "je": 6449,
      "##ital": 6450,
      "##turais": 6451,
      "consegu": 6452,
      "sing": 6453,
      "pessoa": 6454,
      "comercial": 6455,
      "46": 6456,
      "arm": 6457,
      "miguel": 6458,
      "extre": 6459,
      "ata": 6460,
      "##dução": 6461,
      "##iqu": 6462,
      "##wn": 6463,
      "salv": 6464,
      "último": 6465,
      "filhos": 6466,
      "rios": 6467,
      "tradicional": 6468,
      "televisão": 6469,
      "htt": 6470,
      "##90": 6471,
      "medic": 6472,
      "37": 6473,
      "bib": 6474,
      "##isc": 6475,
      "##itura": 6476,
      "far": 6477,
      "##ônica": 6478,
      "condados": 6479,
      "##las": 6480,
      "antônio": 6481,
      "catarina": 6482,
      "ram": 6483,
      "##bil": 6484,
      "funcion": 6485,
      "##vor": 6486,
      "nascido": 6487,
      "##tual": 6488,
      "pia": 6489,
      "equip": 6490,
      "compr": 6491,
      "##ger": 6492,
      "estudo": 6493,
      "90": 6494,
      "carta": 6495,
      "ago": 6496,
      "180": 6497,
      "cultural": 6498,
      "baden": 6499,
      "00": 6500,
      "##cend": 6501,
      "continu": 6502,
      "toc": 6503,
      "exército": 6504,
      "##ren": 6505,
      "neste": 6506,
      "##igos": 6507,
      "agreg": 6508,
      "logo": 6509,
      "bro": 6510,
      "##orreg": 6511,
      "vitória": 6512,
      "seguinte": 6513,
      "torre": 6514,
      "42": 6515,
      "80": 6516,
      "##hor": 6517,
      "##gráf": 6518,
      "##rique": 6519,
      "54": 6520,
      "##ler": 6521,
      "estes": 6522,
      "confor": 6523,
      "pertencente": 6524,
      "##encia": 6525,
      "##rações": 6526,
      "seria": 6527,
      "ating": 6528,
      "##inais": 6529,
      "etim": 6530,
      "metropolitana": 6531,
      "70": 6532,
      "vend": 6533,
      "funda": 6534,
      "ros": 6535,
      "tup": 6536,
      "07": 6537,
      "naturais": 6538,
      "cláss": 6539,
      "líder": 6540,
      "##tando": 6541,
      "caop": 6542,
      "trad": 6543,
      "acesso": 6544,
      "fab": 6545,
      "pequeno": 6546,
      "membro": 6547,
      "##onso": 6548,
      "##ega": 6549,
      "luís": 6550,
      "indús": 6551,
      "ocorre": 6552,
      "educação": 6553,
      "ár": 6554,
      "##ner": 6555,
      "##ético": 6556,
      "##eir": 6557,
      "espac": 6558,
      "integra": 6559,
      "site": 6560,
      "quilôm": 6561,
      "##ilha": 6562,
      "pequena": 6563,
      "##ama": 6564,
      "##illa": 6565,
      "2008": 6566,
      "sím": 6567,
      "sou": 6568,
      "quinta": 6569,
      "miss": 6570,
      "fora": 6571,
      "inicialmente": 6572,
      "1980": 6573,
      "55": 6574,
      "sete": 6575,
      "##emberg": 6576,
      "char": 6577,
      "##triz": 6578,
      "76": 6579,
      "silva": 6580,
      "plane": 6581,
      "2009": 6582,
      "semelh": 6583,
      "ribeira": 6584,
      "03": 6585,
      "##iás": 6586,
      "acab": 6587,
      "valor": 6588,
      "som": 6589,
      "##ície": 6590,
      "##ker": 6591,
      "formado": 6592,
      "wür": 6593,
      "45": 6594,
      "##bia": 6595,
      "decreto": 6596,
      "##iência": 6597,
      "##cho": 6598,
      "pertence": 6599,
      "revista": 6600,
      "símbol": 6601,
      "irmão": 6602,
      "sel": 6603,
      "trib": 6604,
      "relat": 6605,
      "escritor": 6606,
      "termos": 6607,
      "cro": 6608,
      "##ival": 6609,
      "48": 6610,
      "tais": 6611,
      "##aca": 6612,
      "categoria": 6613,
      "reforma": 6614,
      "##bert": 6615,
      "##tion": 6616,
      "humano": 6617,
      "38": 6618,
      "##jas": 6619,
      "general": 6620,
      "mer": 6621,
      "##orr": 6622,
      "##porto": 6623,
      "campos": 6624,
      "##ttemberg": 6625,
      "unido": 6626,
      "württemberg": 6627,
      "##rição": 6628,
      "adv": 6629,
      "lombardia": 6630,
      "lançado": 6631,
      "var": 6632,
      "industria": 6633,
      "##ash": 6634,
      "câmara": 6635,
      "musical": 6636,
      "realiz": 6637,
      "falec": 6638,
      "prêmio": 6639,
      "cobertos": 6640,
      "##ware": 6641,
      "altura": 6642,
      "anim": 6643,
      "tempos": 6644,
      "cla": 6645,
      "##entu": 6646,
      "##zz": 6647,
      "##ílio": 6648,
      "afric": 6649,
      "acont": 6650,
      "terceira": 6651,
      "alexand": 6652,
      "34": 6653,
      "semanas": 6654,
      "arma": 6655,
      "mel": 6656,
      "indíg": 6657,
      "normalmente": 6658,
      "##écia": 6659,
      "igu": 6660,
      "observ": 6661,
      "estação": 6662,
      "originalmente": 6663,
      "##vas": 6664,
      "##mia": 6665,
      "capac": 6666,
      "menor": 6667,
      "seis": 6668,
      "compre": 6669,
      "##tamento": 6670,
      "personagem": 6671,
      "modo": 6672,
      "impl": 6673,
      "##posição": 6674,
      "##12": 6675,
      "##lin": 6676,
      "1995": 6677,
      "antónio": 6678,
      "posição": 6679,
      "registada": 6680,
      "santos": 6681,
      "ciências": 6682,
      "##tel": 6683,
      "nave": 6684,
      "184": 6685,
      "##erson": 6686,
      "##eição": 6687,
      "tab": 6688,
      "##ará": 6689,
      "##ile": 6690,
      "única": 6691,
      "##orial": 6692,
      "sele": 6693,
      "##ks": 6694,
      "línguas": 6695,
      "##tada": 6696,
      "hon": 6697,
      "1997": 6698,
      "tim": 6699,
      "classific": 6700,
      "vista": 6701,
      "conforme": 6702,
      "coloc": 6703,
      "agric": 6704,
      "vari": 6705,
      "##ides": 6706,
      "ste": 6707,
      "##rang": 6708,
      "ana": 6709,
      "96": 6710,
      "promo": 6711,
      "massa": 6712,
      "##tant": 6713,
      "mag": 6714,
      "fen": 6715,
      "guitar": 6716,
      "letras": 6717,
      "publicado": 6718,
      "cód": 6719,
      "numeração": 6720,
      "quilômetros": 6721,
      "evol": 6722,
      "gon": 6723,
      "dan": 6724,
      "cabe": 6725,
      "los": 6726,
      "lag": 6727,
      "##ham": 6728,
      "invest": 6729,
      "objetivo": 6730,
      "execut": 6731,
      "##eos": 6732,
      "##tância": 6733,
      "47": 6734,
      "forças": 6735,
      "1991": 6736,
      "oceano": 6737,
      "rela": 6738,
      "##óf": 6739,
      "solo": 6740,
      "somente": 6741,
      "cabo": 6742,
      "##ínc": 6743,
      "09": 6744,
      "mira": 6745,
      "##mentos": 6746,
      "##zes": 6747,
      "primeiras": 6748,
      "##ius": 6749,
      "##15": 6750,
      "##ung": 6751,
      "apresenta": 6752,
      "##icion": 6753,
      "##ícia": 6754,
      "##ídos": 6755,
      "##ifor": 6756,
      "sentido": 6757,
      "aldeia": 6758,
      "sudeste": 6759,
      "estat": 6760,
      "unidade": 6761,
      "facul": 6762,
      "aleg": 6763,
      "ganhou": 6764,
      "##lam": 6765,
      "##rig": 6766,
      "inclui": 6767,
      "biblio": 6768,
      "âmb": 6769,
      "##hão": 6770,
      "##23": 6771,
      "gran": 6772,
      "noro": 6773,
      "luc": 6774,
      "católica": 6775,
      "etimologia": 6776,
      "democ": 6777,
      "ofer": 6778,
      "jesus": 6779,
      "##orregião": 6780,
      "##ússia": 6781,
      "produto": 6782,
      "etc": 6783,
      "fru": 6784,
      "noroeste": 6785,
      "##emia": 6786,
      "atribu": 6787,
      "situado": 6788,
      "homenagem": 6789,
      "pedra": 6790,
      "livre": 6791,
      "cuja": 6792,
      "##arda": 6793,
      "##ícios": 6794,
      "lond": 6795,
      "serviços": 6796,
      "mem": 6797,
      "artes": 6798,
      "chama": 6799,
      "terceiro": 6800,
      "peix": 6801,
      "##íd": 6802,
      "perc": 6803,
      "manuel": 6804,
      "núcle": 6805,
      "plantas": 6806,
      "atlânt": 6807,
      "águas": 6808,
      "##ward": 6809,
      "jur": 6810,
      "museu": 6811,
      "associação": 6812,
      "responsável": 6813,
      "praia": 6814,
      "juntamente": 6815,
      "ior": 6816,
      "existe": 6817,
      "princíp": 6818,
      "eletr": 6819,
      "referência": 6820,
      "expl": 6821,
      "##tern": 6822,
      "corre": 6823,
      "##etas": 6824,
      "##ini": 6825,
      "nomes": 6826,
      "mora": 6827,
      "direção": 6828,
      "rua": 6829,
      "dra": 6830,
      "##íns": 6831,
      "partes": 6832,
      "italiano": 6833,
      "##adora": 6834,
      "##todo": 6835,
      "coro": 6836,
      "disso": 6837,
      "##ixa": 6838,
      "metal": 6839,
      "##ment": 6840,
      "valenciana": 6841,
      "are": 6842,
      "##vão": 6843,
      "missão": 6844,
      "francesa": 6845,
      "cic": 6846,
      "dig": 6847,
      "##anas": 6848,
      "intro": 6849,
      "boa": 6850,
      "edif": 6851,
      "vem": 6852,
      "red": 6853,
      "escrito": 6854,
      "1996": 6855,
      "flor": 6856,
      "derro": 6857,
      "##ianos": 6858,
      "confina": 6859,
      "romanos": 6860,
      "gros": 6861,
      "##uais": 6862,
      "##inhas": 6863,
      "situa": 6864,
      "afonso": 6865,
      "priv": 6866,
      "interpre": 6867,
      "pas": 6868,
      "causa": 6869,
      "cac": 6870,
      "jard": 6871,
      "ten": 6872,
      "sat": 6873,
      "sudo": 6874,
      "barra": 6875,
      "##berto": 6876,
      "âmbito": 6877,
      "mis": 6878,
      "new": 6879,
      "##ris": 6880,
      "##olog": 6881,
      "nature": 6882,
      "1994": 6883,
      "aé": 6884,
      "sudoeste": 6885,
      "##cionais": 6886,
      "ciência": 6887,
      "##ille": 6888,
      "##ecer": 6889,
      "juliano": 6890,
      "especialmente": 6891,
      "sint": 6892,
      "##alo": 6893,
      "##yl": 6894,
      "##úde": 6895,
      "##ick": 6896,
      "nobel": 6897,
      "##edades": 6898,
      "filoso": 6899,
      "cujo": 6900,
      "produtos": 6901,
      "fes": 6902,
      "pet": 6903,
      "##tam": 6904,
      "contribu": 6905,
      "feito": 6906,
      "argent": 6907,
      "composta": 6908,
      "##ann": 6909,
      "##ingu": 6910,
      "deriv": 6911,
      "##isões": 6912,
      "equipe": 6913,
      "##erva": 6914,
      "independência": 6915,
      "homens": 6916,
      "##ílias": 6917,
      "##resso": 6918,
      "##ames": 6919,
      "1992": 6920,
      "química": 6921,
      "ministro": 6922,
      "veg": 6923,
      "##áticas": 6924,
      "##rando": 6925,
      "antigos": 6926,
      "própria": 6927,
      "44": 6928,
      "curso": 6929,
      "##olis": 6930,
      "##rup": 6931,
      "livros": 6932,
      "bre": 6933,
      "gua": 6934,
      "distritos": 6935,
      "2020": 6936,
      "fato": 6937,
      "formas": 6938,
      "intel": 6939,
      "xviii": 6940,
      "##udo": 6941,
      "fel": 6942,
      "jú": 6943,
      "órg": 6944,
      "##ulação": 6945,
      "locais": 6946,
      "legis": 6947,
      "controle": 6948,
      "madeira": 6949,
      "povoação": 6950,
      "##16": 6951,
      "##ley": 6952,
      "prova": 6953,
      "##ércio": 6954,
      "crescimento": 6955,
      "ada": 6956,
      "lic": 6957,
      "##iter": 6958,
      "povos": 6959,
      "peníns": 6960,
      "sovi": 6961,
      "senhor": 6962,
      "##uss": 6963,
      "saúde": 6964,
      "isto": 6965,
      "agregada": 6966,
      "parc": 6967,
      "presença": 6968,
      "diretor": 6969,
      "##ono": 6970,
      "oriental": 6971,
      "mest": 6972,
      "refere": 6973,
      "mulheres": 6974,
      "##esc": 6975,
      "##redo": 6976,
      "litera": 6977,
      "ára": 6978,
      "program": 6979,
      "56": 6980,
      "##div": 6981,
      "possível": 6982,
      "soft": 6983,
      "barcel": 6984,
      "conceito": 6985,
      "##mais": 6986,
      "usada": 6987,
      "natureza": 6988,
      "sam": 6989,
      "tent": 6990,
      "##estão": 6991,
      "ka": 6992,
      "##ientes": 6993,
      "##vid": 6994,
      "sin": 6995,
      "##onas": 6996,
      "2017": 6997,
      "dinam": 6998,
      "piemo": 6999,
      "castel": 7000,
      "clima": 7001,
      "próximo": 7002,
      "elétr": 7003,
      "representa": 7004,
      "modelo": 7005,
      "org": 7006,
      "vul": 7007,
      "sara": 7008,
      "bastante": 7009,
      "##jos": 7010,
      "##ndas": 7011,
      "península": 7012,
      "rainha": 7013,
      "hel": 7014,
      "atividade": 7015,
      "05": 7016,
      "##gus": 7017,
      "##acionais": 7018,
      "passa": 7019,
      "denominação": 7020,
      "escrita": 7021,
      "espacial": 7022,
      "##éis": 7023,
      "##ale": 7024,
      "comércio": 7025,
      "ace": 7026,
      "pan": 7027,
      "##ng": 7028,
      "espí": 7029,
      "atividades": 7030,
      "88": 7031,
      "ação": 7032,
      "##ídu": 7033,
      "##oro": 7034,
      "pontos": 7035,
      "##ópolis": 7036,
      "##27": 7037,
      "##iação": 7038,
      "63": 7039,
      "lidera": 7040,
      "células": 7041,
      "##upa": 7042,
      "##vio": 7043,
      "##uno": 7044,
      "##aga": 7045,
      "estatu": 7046,
      "filosofia": 7047,
      "##vis": 7048,
      "##ênio": 7049,
      "pesquisa": 7050,
      "comprimento": 7051,
      "##eles": 7052,
      "##urso": 7053,
      "funções": 7054,
      "ali": 7055,
      "edição": 7056,
      "galiza": 7057,
      "temperatura": 7058,
      "possuem": 7059,
      "calif": 7060,
      "festiv": 7061,
      "air": 7062,
      "iniciou": 7063,
      "companhia": 7064,
      "##ly": 7065,
      "margem": 7066,
      "##ír": 7067,
      "subst": 7068,
      "linguagem": 7069,
      "superfície": 7070,
      "médio": 7071,
      "alte": 7072,
      "fundam": 7073,
      "ocorr": 7074,
      "ox": 7075,
      "conhecidos": 7076,
      "distância": 7077,
      "influência": 7078,
      "ensino": 7079,
      "##isas": 7080,
      "##ativo": 7081,
      "presente": 7082,
      "seleção": 7083,
      "piemonte": 7084,
      "wal": 7085,
      "femin": 7086,
      "rádio": 7087,
      "67": 7088,
      "dado": 7089,
      "ambiente": 7090,
      "serviço": 7091,
      "gradu": 7092,
      "1993": 7093,
      "##sol": 7094,
      "##vida": 7095,
      "afir": 7096,
      "londres": 7097,
      "prínc": 7098,
      "fundo": 7099,
      "test": 7100,
      "##media": 7101,
      "##ingen": 7102,
      "vest": 7103,
      "foss": 7104,
      "classe": 7105,
      "chegou": 7106,
      "hos": 7107,
      "fazenda": 7108,
      "arquitetura": 7109,
      "bru": 7110,
      "##eto": 7111,
      "britânico": 7112,
      "composto": 7113,
      "aeroporto": 7114,
      "agricultura": 7115,
      "emb": 7116,
      "fort": 7117,
      "porque": 7118,
      "frequentemente": 7119,
      "geor": 7120,
      "tv": 7121,
      "fase": 7122,
      "sequ": 7123,
      "incor": 7124,
      "particular": 7125,
      "apre": 7126,
      "##unid": 7127,
      "magn": 7128,
      "viol": 7129,
      "rodo": 7130,
      "##ong": 7131,
      "esposa": 7132,
      "##velmente": 7133,
      "mata": 7134,
      "06": 7135,
      "##19": 7136,
      "estima": 7137,
      "mesa": 7138,
      "famílias": 7139,
      "##unt": 7140,
      "##ub": 7141,
      "amar": 7142,
      "milit": 7143,
      "##enças": 7144,
      "cong": 7145,
      "##ium": 7146,
      "taman": 7147,
      "formada": 7148,
      "tenha": 7149,
      "esquer": 7150,
      "medicina": 7151,
      "##etos": 7152,
      "##ndeu": 7153,
      "código": 7154,
      "tratado": 7155,
      "leva": 7156,
      "existência": 7157,
      "revolução": 7158,
      "espanhol": 7159,
      "literatura": 7160,
      "##posta": 7161,
      "##íba": 7162,
      "profissional": 7163,
      "forn": 7164,
      "2014": 7165,
      "extensão": 7166,
      "arquit": 7167,
      "iorque": 7168,
      "velho": 7169,
      "2018": 7170,
      "2022": 7171,
      "utilizada": 7172,
      "##zer": 7173,
      "jovem": 7174,
      "estadunid": 7175,
      "##ven": 7176,
      "##ilia": 7177,
      "##itivo": 7178,
      "austr": 7179,
      "##deu": 7180,
      "séculos": 7181,
      "surgiu": 7182,
      "canadá": 7183,
      "1950": 7184,
      "material": 7185,
      "chefe": 7186,
      "independente": 7187,
      "oliveira": 7188,
      "estrada": 7189,
      "infer": 7190,
      "projet": 7191,
      "descre": 7192,
      "ww": 7193,
      "portanto": 7194,
      "estas": 7195,
      "astro": 7196,
      "##ífico": 7197,
      "capacidade": 7198,
      "desse": 7199,
      "mov": 7200,
      "compor": 7201,
      "azul": 7202,
      "##izados": 7203,
      "2016": 7204,
      "empresas": 7205,
      "padrão": 7206,
      "indic": 7207,
      "biol": 7208,
      "time": 7209,
      "##ismos": 7210,
      "última": 7211,
      "marco": 7212,
      "##jec": 7213,
      "margens": 7214,
      "1930": 7215,
      "dor": 7216,
      "japonesa": 7217,
      "##cul": 7218,
      "port": 7219,
      "salvador": 7220,
      "aliment": 7221,
      "industrial": 7222,
      "##pé": 7223,
      "marca": 7224,
      "cole": 7225,
      "humana": 7226,
      "58": 7227,
      "ema": 7228,
      "##quir": 7229,
      "##empl": 7230,
      "baixa": 7231,
      "##óc": 7232,
      "agr": 7233,
      "tornando": 7234,
      "tupi": 7235,
      "57": 7236,
      "dedic": 7237,
      "metade": 7238,
      "##ech": 7239,
      "ambos": 7240,
      "imagem": 7241,
      "##ella": 7242,
      "historia": 7243,
      "portugueses": 7244,
      "venc": 7245,
      "duque": 7246,
      "seg": 7247,
      "1989": 7248,
      "estar": 7249,
      "capa": 7250,
      "gas": 7251,
      "##ev": 7252,
      "mato": 7253,
      "subdiv": 7254,
      "indústria": 7255,
      "agu": 7256,
      "##ork": 7257,
      "estrem": 7258,
      "terre": 7259,
      "cargo": 7260,
      "paulista": 7261,
      "resta": 7262,
      "##pes": 7263,
      "##xico": 7264,
      "##jam": 7265,
      "conserv": 7266,
      "www": 7267,
      "##rid": 7268,
      "##imas": 7269,
      "japonês": 7270,
      "mos": 7271,
      "04": 7272,
      "género": 7273,
      "##çu": 7274,
      "ator": 7275,
      "fundador": 7276,
      "administração": 7277,
      "just": 7278,
      "sho": 7279,
      "mand": 7280,
      "2015": 7281,
      "transfer": 7282,
      "fundações": 7283,
      "anu": 7284,
      "castro": 7285,
      "##ume": 7286,
      "casal": 7287,
      "meta": 7288,
      "comunicação": 7289,
      "retor": 7290,
      "teatro": 7291,
      "imedia": 7292,
      "henrique": 7293,
      "faculdade": 7294,
      "probl": 7295,
      "dinast": 7296,
      "fis": 7297,
      "##17": 7298,
      "##bio": 7299,
      "canal": 7300,
      "estatística": 7301,
      "66": 7302,
      "dessa": 7303,
      "2019": 7304,
      "legisl": 7305,
      "02": 7306,
      "##18": 7307,
      "atriz": 7308,
      "xii": 7309,
      "##ursos": 7310,
      "##gh": 7311,
      "governador": 7312,
      "mercado": 7313,
      "príncipe": 7314,
      "##eim": 7315,
      "árv": 7316,
      "##urgo": 7317,
      "interesse": 7318,
      "##iago": 7319,
      "prefeitura": 7320,
      "estremadura": 7321,
      "índia": 7322,
      "##ult": 7323,
      "sít": 7324,
      "reun": 7325,
      "geográfica": 7326,
      "estatuto": 7327,
      "rússia": 7328,
      "exce": 7329,
      "beira": 7330,
      "acred": 7331,
      "secret": 7332,
      "nic": 7333,
      "teria": 7334,
      "##port": 7335,
      "núcleo": 7336,
      "##inham": 7337,
      "financ": 7338,
      "destru": 7339,
      "montan": 7340,
      "##ídeos": 7341,
      "sic": 7342,
      "mult": 7343,
      "182": 7344,
      "rap": 7345,
      "inau": 7346,
      "hum": 7347,
      "classificação": 7348,
      "aer": 7349,
      "dá": 7350,
      "sens": 7351,
      "cores": 7352,
      "##óis": 7353,
      "exc": 7354,
      "constituição": 7355,
      "resultado": 7356,
      "##lar": 7357,
      "matriz": 7358,
      "pern": 7359,
      "anderson": 7360,
      "pág": 7361,
      "sus": 7362,
      "##istência": 7363,
      "inaugu": 7364,
      "nem": 7365,
      "##ímp": 7366,
      "##lus": 7367,
      "engenharia": 7368,
      "tradição": 7369,
      "estadunidense": 7370,
      "assum": 7371,
      "conhecimento": 7372,
      "goiás": 7373,
      "##ck": 7374,
      "perto": 7375,
      "vermelho": 7376,
      "##ux": 7377,
      "perm": 7378,
      "amor": 7379,
      "http": 7380,
      "##imbra": 7381,
      "##ipl": 7382,
      "software": 7383,
      "cre": 7384,
      "mou": 7385,
      "##rantes": 7386,
      "##ife": 7387,
      "importância": 7388,
      "esqu": 7389,
      "inspira": 7390,
      "fernando": 7391,
      "95": 7392,
      "europeia": 7393,
      "nações": 7394,
      "canto": 7395,
      "##nu": 7396,
      "amaz": 7397,
      "pat": 7398,
      "paz": 7399,
      "##izações": 7400,
      "dominical": 7401,
      "nenh": 7402,
      "defe": 7403,
      "seb": 7404,
      "1988": 7405,
      "ton": 7406,
      "indivídu": 7407,
      "busca": 7408,
      "dio": 7409,
      "mam": 7410,
      "nascimentos": 7411,
      "sí": 7412,
      "vice": 7413,
      "guer": 7414,
      "##égio": 7415,
      "maran": 7416,
      "fat": 7417,
      "acima": 7418,
      "##inga": 7419,
      "arque": 7420,
      "rot": 7421,
      "propriedade": 7422,
      "descend": 7423,
      "exempl": 7424,
      "##ndendo": 7425,
      "palavras": 7426,
      "jardim": 7427,
      "cara": 7428,
      "raz": 7429,
      "tamanho": 7430,
      "unidades": 7431,
      "concent": 7432,
      "estrela": 7433,
      "mudou": 7434,
      "##liam": 7435,
      "humanos": 7436,
      "##rael": 7437,
      "tecnologia": 7438,
      "500": 7439,
      "69": 7440,
      "##har": 7441,
      "desa": 7442,
      "ác": 7443,
      "ocupa": 7444,
      "informação": 7445,
      "espírito": 7446,
      "quer": 7447,
      "08": 7448,
      "1973": 7449,
      "##uma": 7450,
      "extra": 7451,
      "aves": 7452,
      "dess": 7453,
      "sociais": 7454,
      "esses": 7455,
      "comand": 7456,
      "##30": 7457,
      "quantidade": 7458,
      "moderna": 7459,
      "ren": 7460,
      "##orio": 7461,
      "1962": 7462,
      "##ológico": 7463,
      "##ificar": 7464,
      "olímp": 7465,
      "1986": 7466,
      "problemas": 7467,
      "##rop": 7468,
      "##ted": 7469,
      "pouc": 7470,
      "##vendo": 7471,
      "meados": 7472,
      "75": 7473,
      "trop": 7474,
      "dinastia": 7475,
      "ásia": 7476,
      "##eios": 7477,
      "caminho": 7478,
      "cun": 7479,
      "##hi": 7480,
      "##onia": 7481,
      "vii": 7482,
      "pec": 7483,
      "##ity": 7484,
      "urbana": 7485,
      "##asse": 7486,
      "##amp": 7487,
      "casos": 7488,
      "psic": 7489,
      "frente": 7490,
      "pernamb": 7491,
      "israel": 7492,
      "símbolo": 7493,
      "william": 7494,
      "##pp": 7495,
      "regional": 7496,
      "feita": 7497,
      "1977": 7498,
      "temp": 7499,
      "direitos": 7500,
      "costu": 7501,
      "desemp": 7502,
      "arran": 7503,
      "estudou": 7504,
      "villa": 7505,
      "novas": 7506,
      "##ônico": 7507,
      "incluem": 7508,
      "wh": 7509,
      "85": 7510,
      "cés": 7511,
      "verd": 7512,
      "compositor": 7513,
      "hol": 7514,
      "natal": 7515,
      "##ft": 7516,
      "exib": 7517,
      "conselho": 7518,
      "dispos": 7519,
      "canção": 7520,
      "imig": 7521,
      "vocal": 7522,
      "atra": 7523,
      "68": 7524,
      "condições": 7525,
      "bispo": 7526,
      "pública": 7527,
      "##36": 7528,
      "##ble": 7529,
      "trata": 7530,
      "micr": 7531,
      "cele": 7532,
      "chamados": 7533,
      "descrição": 7534,
      "incorpo": 7535,
      "##ólogo": 7536,
      "anterior": 7537,
      "##rel": 7538,
      "internet": 7539,
      "academia": 7540,
      "mach": 7541,
      "##izo": 7542,
      "##ramento": 7543,
      "##omar": 7544,
      "momento": 7545,
      "carval": 7546,
      "alm": 7547,
      "coimbra": 7548,
      "desm": 7549,
      "méxico": 7550,
      "territórios": 7551,
      "##ibilidade": 7552,
      "chin": 7553,
      "##ington": 7554,
      "pratic": 7555,
      "globo": 7556,
      "fontes": 7557,
      "cus": 7558,
      "gram": 7559,
      "##pla": 7560,
      "##ider": 7561,
      "contex": 7562,
      "descoberta": 7563,
      "##44": 7564,
      "palácio": 7565,
      "alcanç": 7566,
      "matemática": 7567,
      "comuns": 7568,
      "elas": 7569,
      "anal": 7570,
      "resol": 7571,
      "cô": 7572,
      "##eia": 7573,
      "##39": 7574,
      "daqu": 7575,
      "##uso": 7576,
      "##utos": 7577,
      "aba": 7578,
      "branca": 7579,
      "##ncip": 7580,
      "prática": 7581,
      "nomeado": 7582,
      "1981": 7583,
      "barb": 7584,
      "emancip": 7585,
      "##ifa": 7586,
      "consiste": 7587,
      "passando": 7588,
      "##hes": 7589,
      "qualidade": 7590,
      "##nes": 7591,
      "##ello": 7592,
      "argentina": 7593,
      "césar": 7594,
      "1975": 7595,
      "longa": 7596,
      "melhores": 7597,
      "figura": 7598,
      "##culo": 7599,
      "imper": 7600,
      "atlântico": 7601,
      "nesse": 7602,
      "ofic": 7603,
      "hosp": 7604,
      "##tivamente": 7605,
      "nunca": 7606,
      "##lad": 7607,
      "anál": 7608,
      "serem": 7609,
      "rich": 7610,
      "sy": 7611,
      "sor": 7612,
      "ocorreu": 7613,
      "proto": 7614,
      "medida": 7615,
      "fazendo": 7616,
      "sebast": 7617,
      "##tão": 7618,
      "reis": 7619,
      "palm": 7620,
      "animal": 7621,
      "##fera": 7622,
      "marinha": 7623,
      "veloc": 7624,
      "jer": 7625,
      "##entação": 7626,
      "nascimento": 7627,
      "dista": 7628,
      "aspec": 7629,
      "1979": 7630,
      "human": 7631,
      "informações": 7632,
      "wor": 7633,
      "##izou": 7634,
      "lá": 7635,
      "##ky": 7636,
      "##entado": 7637,
      "maneira": 7638,
      "quarta": 7639,
      "lito": 7640,
      "usu": 7641,
      "1985": 7642,
      "objetos": 7643,
      "cabeça": 7644,
      "1982": 7645,
      "elevado": 7646,
      "##rança": 7647,
      "títulos": 7648,
      "##ressão": 7649,
      "falecimentos": 7650,
      "pinh": 7651,
      "trabalhos": 7652,
      "jorge": 7653,
      "índios": 7654,
      "sag": 7655,
      "guarda": 7656,
      "festival": 7657,
      "##enza": 7658,
      "definição": 7659,
      "quadr": 7660,
      "simplesmente": 7661,
      "uru": 7662,
      "excel": 7663,
      "corte": 7664,
      "disco": 7665,
      "militares": 7666,
      "1974": 7667,
      "acomp": 7668,
      "##organ": 7669,
      "##tera": 7670,
      "distribuição": 7671,
      "crio": 7672,
      "1963": 7673,
      "mitologia": 7674,
      "meses": 7675,
      "dout": 7676,
      "irmãos": 7677,
      "##46": 7678,
      "paró": 7679,
      "ef": 7680,
      "##orias": 7681,
      "##eições": 7682,
      "foto": 7683,
      "oito": 7684,
      "##ré": 7685,
      "anton": 7686,
      "##itação": 7687,
      "entretanto": 7688,
      "1976": 7689,
      "1964": 7690,
      "lançamento": 7691,
      "tiv": 7692,
      "##undo": 7693,
      "##áticos": 7694,
      "aplic": 7695,
      "substância": 7696,
      "59": 7697,
      "personagens": 7698,
      "gonç": 7699,
      "##inação": 7700,
      "intens": 7701,
      "51": 7702,
      "recursos": 7703,
      "1969": 7704,
      "casas": 7705,
      "denominado": 7706,
      "históricos": 7707,
      "monum": 7708,
      "expressão": 7709,
      "esquerda": 7710,
      "desamb": 7711,
      "espera": 7712,
      "artista": 7713,
      "las": 7714,
      "rou": 7715,
      "invas": 7716,
      "apoio": 7717,
      "##che": 7718,
      "salama": 7719,
      "conquista": 7720,
      "##iros": 7721,
      "##rest": 7722,
      "sar": 7723,
      "respec": 7724,
      "loneos": 7725,
      "camb": 7726,
      "palomar": 7727,
      "localização": 7728,
      "filó": 7729,
      "ambi": 7730,
      "##mat": 7731,
      "poeta": 7732,
      "##éd": 7733,
      "1920": 7734,
      "pequenas": 7735,
      "##elhos": 7736,
      "carb": 7737,
      "1987": 7738,
      "bás": 7739,
      "ti": 7740,
      "ult": 7741,
      "##tec": 7742,
      "##eca": 7743,
      "##quim": 7744,
      "algo": 7745,
      "obt": 7746,
      "memória": 7747,
      "##elha": 7748,
      "##ulg": 7749,
      "populosa": 7750,
      "filóso": 7751,
      "comando": 7752,
      "##ok": 7753,
      "nota": 7754,
      "##guai": 7755,
      "infant": 7756,
      "cór": 7757,
      "reno": 7758,
      "relações": 7759,
      "essas": 7760,
      "alemã": 7761,
      "anteriormente": 7762,
      "86": 7763,
      "confl": 7764,
      "liter": 7765,
      "naz": 7766,
      "ala": 7767,
      "1940": 7768,
      "mc": 7769,
      "##ídas": 7770,
      "pereira": 7771,
      "noru": 7772,
      "preto": 7773,
      "medie": 7774,
      "dispon": 7775,
      "pós": 7776,
      "litoral": 7777,
      "##ld": 7778,
      "##eres": 7779,
      "ferreira": 7780,
      "elemento": 7781,
      "navarra": 7782,
      "pers": 7783,
      "novos": 7784,
      "augus": 7785,
      "levou": 7786,
      "##ee": 7787,
      "adquir": 7788,
      "micro": 7789,
      "dim": 7790,
      "##iba": 7791,
      "##cado": 7792,
      "##ten": 7793,
      "##55": 7794,
      "elevada": 7795,
      "tornar": 7796,
      "naveg": 7797,
      "califór": 7798,
      "plano": 7799,
      "favor": 7800,
      "##ford": 7801,
      "##óvia": 7802,
      "inver": 7803,
      "fich": 7804,
      "##itado": 7805,
      "constituído": 7806,
      "tinham": 7807,
      "##by": 7808,
      "clubes": 7809,
      "record": 7810,
      "decla": 7811,
      "religião": 7812,
      "computador": 7813,
      "físico": 7814,
      "propor": 7815,
      "califórnia": 7816,
      "##áce": 7817,
      "##anças": 7818,
      "grosso": 7819,
      "##zen": 7820,
      "guad": 7821,
      "##ney": 7822,
      "álbuns": 7823,
      "xvii": 7824,
      "consequ": 7825,
      "máx": 7826,
      "##84": 7827,
      "deriva": 7828,
      "lagoa": 7829,
      "reinado": 7830,
      "repro": 7831,
      "manif": 7832,
      "99": 7833,
      "hem": 7834,
      "indo": 7835,
      "províncias": 7836,
      "baseado": 7837,
      "grega": 7838,
      "foz": 7839,
      "alia": 7840,
      "recebe": 7841,
      "britânica": 7842,
      "domínio": 7843,
      "ideia": 7844,
      "ocupação": 7845,
      "##ect": 7846,
      "cand": 7847,
      "estádio": 7848,
      "designação": 7849,
      "indígenas": 7850,
      "##rato": 7851,
      "mens": 7852,
      "##ville": 7853,
      "estrang": 7854,
      "constant": 7855,
      "pic": 7856,
      "##oco": 7857,
      "##edes": 7858,
      "##ógica": 7859,
      "germ": 7860,
      "pira": 7861,
      "##rad": 7862,
      "dele": 7863,
      "formato": 7864,
      "1983": 7865,
      "barcelona": 7866,
      "don": 7867,
      "escala": 7868,
      "objeto": 7869,
      "altern": 7870,
      "contem": 7871,
      "bacia": 7872,
      "alegre": 7873,
      "wa": 7874,
      "##data": 7875,
      "compon": 7876,
      "conclu": 7877,
      "encontram": 7878,
      "##alidade": 7879,
      "hola": 7880,
      "##ci": 7881,
      "##aba": 7882,
      "estú": 7883,
      "defesa": 7884,
      "james": 7885,
      "van": 7886,
      "árabe": 7887,
      "##met": 7888,
      "introduz": 7889,
      "##ure": 7890,
      "179": 7891,
      "fri": 7892,
      "fix": 7893,
      "ocas": 7894,
      "1984": 7895,
      "velha": 7896,
      "##use": 7897,
      "##âneo": 7898,
      "quarto": 7899,
      "##mana": 7900,
      "famoso": 7901,
      "entrou": 7902,
      "tudo": 7903,
      "números": 7904,
      "kar": 7905,
      "##pr": 7906,
      "##icano": 7907,
      "urbano": 7908,
      "assemb": 7909,
      "procura": 7910,
      "prefeito": 7911,
      "programas": 7912,
      "aust": 7913,
      "##ende": 7914,
      "eleições": 7915,
      "idio": 7916,
      "##range": 7917,
      "repu": 7918,
      "sig": 7919,
      "transforma": 7920,
      "supor": 7921,
      "segurança": 7922,
      "afirma": 7923,
      "pó": 7924,
      "david": 7925,
      "1967": 7926,
      "exerc": 7927,
      "##ipé": 7928,
      "##âmica": 7929,
      "doença": 7930,
      "1968": 7931,
      "##ónia": 7932,
      "telef": 7933,
      "##56": 7934,
      "texto": 7935,
      "provavelmente": 7936,
      "pressão": 7937,
      "1978": 7938,
      "aflu": 7939,
      "colônia": 7940,
      "maranhão": 7941,
      "##ológica": 7942,
      "ajuda": 7943,
      "respe": 7944,
      "inglesa": 7945,
      "construída": 7946,
      "##pia": 7947,
      "##hada": 7948,
      "cana": 7949,
      "hou": 7950,
      "##don": 7951,
      "desmemb": 7952,
      "pion": 7953,
      "infância": 7954,
      "contexto": 7955,
      "ko": 7956,
      "##lândia": 7957,
      "transm": 7958,
      "##entou": 7959,
      "actual": 7960,
      "solar": 7961,
      "##eirão": 7962,
      "rob": 7963,
      "##án": 7964,
      "contém": 7965,
      "##its": 7966,
      "##ey": 7967,
      "agora": 7968,
      "adap": 7969,
      "turismo": 7970,
      "romance": 7971,
      "horizo": 7972,
      "valores": 7973,
      "permite": 7974,
      "interess": 7975,
      "direita": 7976,
      "eua": 7977,
      "territorial": 7978,
      "facil": 7979,
      "técnica": 7980,
      "sarago": 7981,
      "##ish": 7982,
      "adol": 7983,
      "políticas": 7984,
      "europeu": 7985,
      "transporte": 7986,
      "saragoça": 7987,
      "62": 7988,
      "##hal": 7989,
      "santiago": 7990,
      "desenvolvido": 7991,
      "decid": 7992,
      "equival": 7993,
      "veio": 7994,
      "egito": 7995,
      "##ones": 7996,
      "alfab": 7997,
      "conhecidas": 7998,
      "##itora": 7999,
      "##ânicos": 8000,
      "pequenos": 8001,
      "##cal": 8002,
      "##pu": 8003,
      "burgos": 8004,
      "morreu": 8005,
      "1971": 8006,
      "##iologia": 8007,
      "máqu": 8008,
      "velocidade": 8009,
      "lima": 8010,
      "viria": 8011,
      "bill": 8012,
      "nobre": 8013,
      "enf": 8014,
      "##my": 8015,
      "##ilar": 8016,
      "domingo": 8017,
      "##ecendo": 8018,
      "##ábria": 8019,
      "piauí": 8020,
      "armas": 8021,
      "predo": 8022,
      "capitão": 8023,
      "propriedades": 8024,
      "esporte": 8025,
      "joa": 8026,
      "origens": 8027,
      "processos": 8028,
      "ente": 8029,
      "##57": 8030,
      "ing": 8031,
      "confer": 8032,
      "federação": 8033,
      "##ges": 8034,
      "##uras": 8035,
      "##enho": 8036,
      "dese": 8037,
      "dentre": 8038,
      "médico": 8039,
      "##var": 8040,
      "##ún": 8041,
      "##ibil": 8042,
      "partíc": 8043,
      "##burgo": 8044,
      "dinamarca": 8045,
      "##itores": 8046,
      "##ecem": 8047,
      "bern": 8048,
      "colonização": 8049,
      "açores": 8050,
      "##cou": 8051,
      "##ég": 8052,
      "apel": 8053,
      "##istão": 8054,
      "paraíba": 8055,
      "url": 8056,
      "padre": 8057,
      "planta": 8058,
      "ráp": 8059,
      "vicente": 8060,
      "tão": 8061,
      "tit": 8062,
      "instituição": 8063,
      "gab": 8064,
      "ate": 8065,
      "disput": 8066,
      "300": 8067,
      "ponta": 8068,
      "89": 8069,
      "fór": 8070,
      "##rens": 8071,
      "reorgan": 8072,
      "fortal": 8073,
      "sousa": 8074,
      "passado": 8075,
      "##õe": 8076,
      "##úm": 8077,
      "assass": 8078,
      "viveu": 8079,
      "edifício": 8080,
      "jogador": 8081,
      "campeão": 8082,
      "ampl": 8083,
      "escreveu": 8084,
      "integrado": 8085,
      "sono": 8086,
      "98": 8087,
      "##ls": 8088,
      "78": 8089,
      "hal": 8090,
      "##erais": 8091,
      "1972": 8092,
      "políticos": 8093,
      "1954": 8094,
      "verdad": 8095,
      "dever": 8096,
      "york": 8097,
      "all": 8098,
      "les": 8099,
      "##ene": 8100,
      "artistas": 8101,
      "precis": 8102,
      "agríc": 8103,
      "73": 8104,
      "científica": 8105,
      "destin": 8106,
      "##rina": 8107,
      "1965": 8108,
      "##we": 8109,
      "participou": 8110,
      "##unos": 8111,
      "micros": 8112,
      "sebastião": 8113,
      "pé": 8114,
      "##abilidade": 8115,
      "##ack": 8116,
      "prata": 8117,
      "trabalhou": 8118,
      "soviética": 8119,
      "assemble": 8120,
      "cidad": 8121,
      "tan": 8122,
      "##osos": 8123,
      "idh": 8124,
      "cá": 8125,
      "prima": 8126,
      "russo": 8127,
      "rol": 8128,
      "##pção": 8129,
      "##sor": 8130,
      "colégio": 8131,
      "corrente": 8132,
      "salamanca": 8133,
      "##izadas": 8134,
      "##ificada": 8135,
      "braga": 8136,
      "empre": 8137,
      "cantor": 8138,
      "vê": 8139,
      "##érida": 8140,
      "bandas": 8141,
      "pernambuco": 8142,
      "##ics": 8143,
      "moç": 8144,
      "150": 8145,
      "extens": 8146,
      "empreg": 8147,
      "nacionais": 8148,
      "contr": 8149,
      "envia": 8150,
      "1961": 8151,
      "taxa": 8152,
      "nessa": 8153,
      "sm": 8154,
      "##bi": 8155,
      "realizado": 8156,
      "79": 8157,
      "anc": 8158,
      "ot": 8159,
      "princípio": 8160,
      "hino": 8161,
      "##arem": 8162,
      "tax": 8163,
      "bot": 8164,
      "desenvolv": 8165,
      "##ebra": 8166,
      "end": 8167,
      "planeta": 8168,
      "##tores": 8169,
      "##leo": 8170,
      "conquist": 8171,
      "##zano": 8172,
      "caf": 8173,
      "décadas": 8174,
      "página": 8175,
      "##ites": 8176,
      "arquivo": 8177,
      "microrregião": 8178,
      "41": 8179,
      "##itário": 8180,
      "produtor": 8181,
      "oficiais": 8182,
      "contempor": 8183,
      "colo": 8184,
      "referir": 8185,
      "peixes": 8186,
      "##hu": 8187,
      "##idor": 8188,
      "##teca": 8189,
      "##territ": 8190,
      "histórica": 8191,
      "aldeias": 8192,
      "war": 8193,
      "##dios": 8194,
      "demais": 8195,
      "reco": 8196,
      "reduz": 8197,
      "87": 8198,
      "ramo": 8199,
      "sard": 8200,
      "##ku": 8201,
      "naqu": 8202,
      "suced": 8203,
      "##burg": 8204,
      "97": 8205,
      "##raram": 8206,
      "exped": 8207,
      "composição": 8208,
      "fant": 8209,
      "anf": 8210,
      "acid": 8211,
      "evento": 8212,
      "trono": 8213,
      "fenôm": 8214,
      "lan": 8215,
      "pena": 8216,
      "obte": 8217,
      "método": 8218,
      "sangue": 8219,
      "nucle": 8220,
      "destaca": 8221,
      "verão": 8222,
      "esca": 8223,
      "rural": 8224,
      "tho": 8225,
      "pará": 8226,
      "arre": 8227,
      "inferior": 8228,
      "rosa": 8229,
      "1966": 8230,
      "descrit": 8231,
      "deput": 8232,
      "77": 8233,
      "##gterrit": 8234,
      "##ativas": 8235,
      "chegada": 8236,
      "##gterritorio": 8237,
      "##íss": 8238,
      "passagem": 8239,
      "grécia": 8240,
      "anex": 8241,
      "destaque": 8242,
      "mestre": 8243,
      "visão": 8244,
      "construído": 8245,
      "sítio": 8246,
      "razão": 8247,
      "fórm": 8248,
      "bi": 8249,
      "pir": 8250,
      "##abel": 8251,
      "demon": 8252,
      "dada": 8253,
      "neu": 8254,
      "##ood": 8255,
      "##osas": 8256,
      "diferente": 8257,
      "93": 8258,
      "festa": 8259,
      "##ífer": 8260,
      "entrada": 8261,
      "crítica": 8262,
      "my": 8263,
      "##iça": 8264,
      "estruturas": 8265,
      "atrás": 8266,
      "paral": 8267,
      "orden": 8268,
      "juda": 8269,
      "ame": 8270,
      "vivo": 8271,
      "estrat": 8272,
      "conceição": 8273,
      "##ânea": 8274,
      "trabalha": 8275,
      "1945": 8276,
      "expans": 8277,
      "negro": 8278,
      "continente": 8279,
      "ato": 8280,
      "fazem": 8281,
      "algum": 8282,
      "efeitos": 8283,
      "gráf": 8284,
      "##ef": 8285,
      "chr": 8286,
      "##bate": 8287,
      "world": 8288,
      "dimin": 8289,
      "ec": 8290,
      "pilo": 8291,
      "##mor": 8292,
      "##rata": 8293,
      "##entino": 8294,
      "abando": 8295,
      "72": 8296,
      "pul": 8297,
      "formou": 8298,
      "austrália": 8299,
      "award": 8300,
      "mig": 8301,
      "fosse": 8302,
      "excl": 8303,
      "baseada": 8304,
      "ministério": 8305,
      "pun": 8306,
      "##tero": 8307,
      "##liano": 8308,
      "dr": 8309,
      "##inção": 8310,
      "##itivos": 8311,
      "prêmios": 8312,
      "semelhante": 8313,
      "george": 8314,
      "rem": 8315,
      "##olas": 8316,
      "arro": 8317,
      "histórias": 8318,
      "##neto": 8319,
      "estrelas": 8320,
      "##inária": 8321,
      "177": 8322,
      "aven": 8323,
      "##eda": 8324,
      "jude": 8325,
      "1948": 8326,
      "latina": 8327,
      "giro": 8328,
      "produzido": 8329,
      "conseguiu": 8330,
      "##áx": 8331,
      "##ert": 8332,
      "castell": 8333,
      "podendo": 8334,
      "mai": 8335,
      "atuais": 8336,
      "realizada": 8337,
      "evolução": 8338,
      "lec": 8339,
      "seres": 8340,
      "distint": 8341,
      "saint": 8342,
      "participação": 8343,
      "fé": 8344,
      "lut": 8345,
      "##ds": 8346,
      "##esia": 8347,
      "prepa": 8348,
      "178": 8349,
      "internacionais": 8350,
      "patrimônio": 8351,
      "aérea": 8352,
      "dou": 8353,
      "##lago": 8354,
      "escrav": 8355,
      "floresta": 8356,
      "84": 8357,
      "##li": 8358,
      "chu": 8359,
      "torres": 8360,
      "voz": 8361,
      "análise": 8362,
      "##itiva": 8363,
      "notas": 8364,
      "##olid": 8365,
      "reorganização": 8366,
      "específ": 8367,
      "jornalista": 8368,
      "econômica": 8369,
      "gro": 8370,
      "##erta": 8371,
      "##edor": 8372,
      "criar": 8373,
      "praça": 8374,
      "últimos": 8375,
      "efeito": 8376,
      "assembleia": 8377,
      "83": 8378,
      "crit": 8379,
      "##ego": 8380,
      "##itt": 8381,
      "alme": 8382,
      "colet": 8383,
      "aux": 8384,
      "star": 8385,
      "##endo": 8386,
      "##entada": 8387,
      "drama": 8388,
      "##nças": 8389,
      "##ôs": 8390,
      "depe": 8391,
      "##erto": 8392,
      "arquipé": 8393,
      "cristã": 8394,
      "92": 8395,
      "trein": 8396,
      "##gráfica": 8397,
      "ria": 8398,
      "soy": 8399,
      "grau": 8400,
      "imagens": 8401,
      "moçamb": 8402,
      "big": 8403,
      "##ndro": 8404,
      "herd": 8405,
      "banco": 8406,
      "correspond": 8407,
      "extremo": 8408,
      "fifa": 8409,
      "##ulado": 8410,
      "1959": 8411,
      "vigor": 8412,
      "hy": 8413,
      "mi": 8414,
      "complet": 8415,
      "luta": 8416,
      "##ônicos": 8417,
      "ciclo": 8418,
      "criou": 8419,
      "##vens": 8420,
      "brasileiros": 8421,
      "estúdio": 8422,
      "##ions": 8423,
      "vai": 8424,
      "pop": 8425,
      "##zzo": 8426,
      "##ínas": 8427,
      "usados": 8428,
      "ácido": 8429,
      "##igna": 8430,
      "transform": 8431,
      "significado": 8432,
      "biz": 8433,
      "fáb": 8434,
      "oriente": 8435,
      "ave": 8436,
      "##ss": 8437,
      "##vila": 8438,
      "depend": 8439,
      "medieval": 8440,
      "instituições": 8441,
      "cum": 8442,
      "##king": 8443,
      "espanhola": 8444,
      "cm": 8445,
      "antec": 8446,
      "desenvolveu": 8447,
      "igual": 8448,
      "soyuz": 8449,
      "##ncio": 8450,
      "ord": 8451,
      "escolh": 8452,
      "alexandria": 8453,
      "##eus": 8454,
      "##idamente": 8455,
      "terrest": 8456,
      "mú": 8457,
      "prém": 8458,
      "##ácia": 8459,
      "lançou": 8460,
      "fabrica": 8461,
      "##viv": 8462,
      "leon": 8463,
      "obrig": 8464,
      "##ológicos": 8465,
      "exploração": 8466,
      "exemplos": 8467,
      "típ": 8468,
      "paro": 8469,
      "contudo": 8470,
      "rocha": 8471,
      "##iformes": 8472,
      "74": 8473,
      "##ndos": 8474,
      "técnicas": 8475,
      "demonst": 8476,
      "##dica": 8477,
      "secund": 8478,
      "gêneros": 8479,
      "circu": 8480,
      "##alto": 8481,
      "nove": 8482,
      "acompanh": 8483,
      "redor": 8484,
      "##ésia": 8485,
      "dividida": 8486,
      "limites": 8487,
      "aumento": 8488,
      "##wil": 8489,
      "##eter": 8490,
      "materiais": 8491,
      "cál": 8492,
      "##estas": 8493,
      "valência": 8494,
      "ilust": 8495,
      "lú": 8496,
      "ná": 8497,
      "##ith": 8498,
      "##gado": 8499,
      "autores": 8500,
      "cad": 8501,
      "##cede": 8502,
      "castilla": 8503,
      "176": 8504,
      "engenheiro": 8505,
      "lor": 8506,
      "##tein": 8507,
      "inclus": 8508,
      "contava": 8509,
      "extrema": 8510,
      "abaixo": 8511,
      "plu": 8512,
      "##enses": 8513,
      "futu": 8514,
      "abre": 8515,
      "corresponde": 8516,
      "contrário": 8517,
      "##tra": 8518,
      "bilh": 8519,
      "##ni": 8520,
      "##idores": 8521,
      "manda": 8522,
      "##ói": 8523,
      "##bres": 8524,
      "computadores": 8525,
      "charles": 8526,
      "montanhas": 8527,
      "vide": 8528,
      "irla": 8529,
      "proteg": 8530,
      "conver": 8531,
      "shi": 8532,
      "##mer": 8533,
      "##mon": 8534,
      "##ules": 8535,
      "##quial": 8536,
      "norma": 8537,
      "ade": 8538,
      "desl": 8539,
      "assist": 8540,
      "##érios": 8541,
      "##ecimento": 8542,
      "perce": 8543,
      "movimentos": 8544,
      "##gen": 8545,
      "##bar": 8546,
      "dame": 8547,
      "veíc": 8548,
      "mosteiro": 8549,
      "coroa": 8550,
      "pin": 8551,
      "##ísmo": 8552,
      "geração": 8553,
      "profund": 8554,
      "##ídeo": 8555,
      "filósofo": 8556,
      "fórmula": 8557,
      "robert": 8558,
      "peças": 8559,
      "peso": 8560,
      "líqu": 8561,
      "notre": 8562,
      "folhas": 8563,
      "mês": 8564,
      "quinto": 8565,
      "##puls": 8566,
      "unit": 8567,
      "baixos": 8568,
      "quadrinhos": 8569,
      "gor": 8570,
      "##rant": 8571,
      "casamento": 8572,
      "##ânicas": 8573,
      "áustria": 8574,
      "##ividade": 8575,
      "bragan": 8576,
      "sexta": 8577,
      "các": 8578,
      "##wer": 8579,
      "isol": 8580,
      "##uros": 8581,
      "##ny": 8582,
      "##su": 8583,
      "##rag": 8584,
      "##rigues": 8585,
      "imperial": 8586,
      "blu": 8587,
      "ran": 8588,
      "##rador": 8589,
      "formando": 8590,
      "económ": 8591,
      "apresentam": 8592,
      "cáceres": 8593,
      "dando": 8594,
      "##tudo": 8595,
      "despor": 8596,
      "característica": 8597,
      "jean": 8598,
      "gil": 8599,
      "gom": 8600,
      "##isf": 8601,
      "richard": 8602,
      "constituída": 8603,
      "turim": 8604,
      "irmã": 8605,
      "expansão": 8606,
      "exclus": 8607,
      "sk": 8608,
      "##édia": 8609,
      "##ogos": 8610,
      "acabou": 8611,
      "##alh": 8612,
      "carvalho": 8613,
      "bento": 8614,
      "dit": 8615,
      "##esco": 8616,
      "##rom": 8617,
      "400": 8618,
      "nat": 8619,
      "##onomia": 8620,
      "motor": 8621,
      "1958": 8622,
      "##élio": 8623,
      "esco": 8624,
      "músicas": 8625,
      "convento": 8626,
      "arranha": 8627,
      "bragança": 8628,
      "##iante": 8629,
      "love": 8630,
      "americanos": 8631,
      "##orden": 8632,
      "vulc": 8633,
      "traduz": 8634,
      "##ucion": 8635,
      "joaquim": 8636,
      "condição": 8637,
      "novamente": 8638,
      "##umin": 8639,
      "estavam": 8640,
      "mistura": 8641,
      "##elli": 8642,
      "##teis": 8643,
      "sobretudo": 8644,
      "deles": 8645,
      "químico": 8646,
      "religiosa": 8647,
      "zip": 8648,
      "sust": 8649,
      "fogo": 8650,
      "arch": 8651,
      "nação": 8652,
      "sequência": 8653,
      "sáb": 8654,
      "##cam": 8655,
      "##mano": 8656,
      "alunos": 8657,
      "faixa": 8658,
      "arquipélago": 8659,
      "histor": 8660,
      "1911": 8661,
      "nar": 8662,
      "##osso": 8663,
      "regime": 8664,
      "94": 8665,
      "comu": 8666,
      "diretamente": 8667,
      "sucess": 8668,
      "europeus": 8669,
      "côns": 8670,
      "sardenha": 8671,
      "len": 8672,
      "mante": 8673,
      "canções": 8674,
      "##istou": 8675,
      "colonial": 8676,
      "econômico": 8677,
      "pico": 8678,
      "##lex": 8679,
      "colle": 8680,
      "horas": 8681,
      "##ak": 8682,
      "eduardo": 8683,
      "pseu": 8684,
      "epis": 8685,
      "pacífico": 8686,
      "investig": 8687,
      "paróquia": 8688,
      "porta": 8689,
      "1953": 8690,
      "bos": 8691,
      "ligação": 8692,
      "viagem": 8693,
      "##bos": 8694,
      "arco": 8695,
      "esteve": 8696,
      "jogadores": 8697,
      "judeus": 8698,
      "nut": 8699,
      "windo": 8700,
      "##etes": 8701,
      "##amba": 8702,
      "índice": 8703,
      "serviu": 8704,
      "##ioso": 8705,
      "leis": 8706,
      "menores": 8707,
      "##uária": 8708,
      "seguida": 8709,
      "vill": 8710,
      "linhas": 8711,
      "frank": 8712,
      "republ": 8713,
      "ig": 8714,
      "mess": 8715,
      "ni": 8716,
      "fundamental": 8717,
      "imigrantes": 8718,
      "##atem": 8719,
      "##rafo": 8720,
      "mich": 8721,
      "guin": 8722,
      "usando": 8723,
      "transmit": 8724,
      "##yn": 8725,
      "revel": 8726,
      "venez": 8727,
      "complexo": 8728,
      "dividido": 8729,
      "82": 8730,
      "biss": 8731,
      "cra": 8732,
      "lam": 8733,
      "douro": 8734,
      "casou": 8735,
      "isabel": 8736,
      "##ónimo": 8737,
      "texas": 8738,
      "doenças": 8739,
      "##ificados": 8740,
      "elétrica": 8741,
      "poucos": 8742,
      "noruega": 8743,
      "##ms": 8744,
      "##han": 8745,
      "quest": 8746,
      "trav": 8747,
      "baía": 8748,
      "colabo": 8749,
      "campanha": 8750,
      "fins": 8751,
      "sobera": 8752,
      "versões": 8753,
      "disputa": 8754,
      "instrumentos": 8755,
      "ecl": 8756,
      "flo": 8757,
      "##bilidade": 8758,
      "doce": 8759,
      "utilizados": 8760,
      "matéria": 8761,
      "relativamente": 8762,
      "guitarra": 8763,
      "labo": 8764,
      "arc": 8765,
      "carn": 8766,
      "##asso": 8767,
      "formam": 8768,
      "##posto": 8769,
      "pls": 8770,
      "comportamento": 8771,
      "dific": 8772,
      "list": 8773,
      "det": 8774,
      "sejam": 8775,
      "##imar": 8776,
      "inser": 8777,
      "extinto": 8778,
      "1936": 8779,
      "encontrados": 8780,
      "deixou": 8781,
      "variedade": 8782,
      "muç": 8783,
      "tropas": 8784,
      "##rich": 8785,
      "tripul": 8786,
      "radio": 8787,
      "programação": 8788,
      "##vez": 8789,
      "##ísticos": 8790,
      "toma": 8791,
      "bab": 8792,
      "cima": 8793,
      "petr": 8794,
      "##mann": 8795,
      "volume": 8796,
      "bell": 8797,
      "von": 8798,
      "ór": 8799,
      "##omas": 8800,
      "actu": 8801,
      "##ibe": 8802,
      "pessoal": 8803,
      "##alidades": 8804,
      "##ndido": 8805,
      "crianças": 8806,
      "1º": 8807,
      "##bach": 8808,
      "##iliar": 8809,
      "##ogado": 8810,
      "teruel": 8811,
      "monar": 8812,
      "wash": 8813,
      "##eco": 8814,
      "parl": 8815,
      "belo": 8816,
      "próxim": 8817,
      "dirigido": 8818,
      "democrá": 8819,
      "##rista": 8820,
      "operações": 8821,
      "##amora": 8822,
      "trabalhar": 8823,
      "próxima": 8824,
      "rodrigues": 8825,
      "moçambique": 8826,
      "##ji": 8827,
      "##izando": 8828,
      "filipe": 8829,
      "artigo": 8830,
      "aqui": 8831,
      "órgão": 8832,
      "órgãos": 8833,
      "acredita": 8834,
      "##age": 8835,
      "eletro": 8836,
      "madrid": 8837,
      "compreend": 8838,
      "windows": 8839,
      "muçul": 8840,
      "mir": 8841,
      "peru": 8842,
      "washington": 8843,
      "mano": 8844,
      "##bis": 8845,
      "descon": 8846,
      "almeida": 8847,
      "sól": 8848,
      "##dig": 8849,
      "prev": 8850,
      "liberdade": 8851,
      "sér": 8852,
      "##érias": 8853,
      "##bri": 8854,
      "evid": 8855,
      "residência": 8856,
      "plata": 8857,
      "##reiro": 8858,
      "cem": 8859,
      "realiza": 8860,
      "aparece": 8861,
      "##bor": 8862,
      "melo": 8863,
      "populares": 8864,
      "mascul": 8865,
      "utilização": 8866,
      "temporada": 8867,
      "##dades": 8868,
      "abund": 8869,
      "##ariamente": 8870,
      "club": 8871,
      "single": 8872,
      "fortaleza": 8873,
      "lac": 8874,
      "tira": 8875,
      "ávila": 8876,
      "prest": 8877,
      "universo": 8878,
      "lérida": 8879,
      "noite": 8880,
      "compar": 8881,
      "galáx": 8882,
      "lus": 8883,
      "##ográfica": 8884,
      "juríd": 8885,
      "houve": 8886,
      "partículas": 8887,
      "sedia": 8888,
      "##eth": 8889,
      "verdade": 8890,
      "considerados": 8891,
      "##landês": 8892,
      "##e9": 8893,
      "##itou": 8894,
      "redes": 8895,
      "povoamento": 8896,
      "ceará": 8897,
      "cantora": 8898,
      "cade": 8899,
      "##uca": 8900,
      "plat": 8901,
      "##ificações": 8902,
      "editora": 8903,
      "visto": 8904,
      "ribeiro": 8905,
      "obteve": 8906,
      "meios": 8907,
      "##yer": 8908,
      "##esca": 8909,
      "termina": 8910,
      "lançada": 8911,
      "armazen": 8912,
      "predomin": 8913,
      "##lim": 8914,
      "tratamento": 8915,
      "passar": 8916,
      "musicais": 8917,
      "propriet": 8918,
      "vasco": 8919,
      "##sh": 8920,
      "lux": 8921,
      "1957": 8922,
      "##lado": 8923,
      "##umo": 8924,
      "##ild": 8925,
      "tend": 8926,
      "1938": 8927,
      "instrumento": 8928,
      "adul": 8929,
      "lav": 8930,
      "hospital": 8931,
      "dgterritorio": 8932,
      "pib": 8933,
      "geográfico": 8934,
      "we": 8935,
      "##ócia": 8936,
      "##hael": 8937,
      "sobreviv": 8938,
      "andré": 8939,
      "templo": 8940,
      "bizant": 8941,
      "##inou": 8942,
      "destes": 8943,
      "recu": 8944,
      "silv": 8945,
      "conteú": 8946,
      "constantino": 8947,
      "gás": 8948,
      "compl": 8949,
      "fazia": 8950,
      "mecânica": 8951,
      "##culos": 8952,
      "##íram": 8953,
      "coorden": 8954,
      "daí": 8955,
      "juv": 8956,
      "alguma": 8957,
      "clara": 8958,
      "diminu": 8959,
      "cru": 8960,
      "##pat": 8961,
      "##ítico": 8962,
      "##itada": 8963,
      "semana": 8964,
      "espir": 8965,
      "##iplo": 8966,
      "atmos": 8967,
      "##pi": 8968,
      "##iosa": 8969,
      "alexandre": 8970,
      "antonio": 8971,
      "comumente": 8972,
      "##glia": 8973,
      "##pro": 8974,
      "##encion": 8975,
      "posse": 8976,
      "chamadas": 8977,
      "competição": 8978,
      "sicília": 8979,
      "coração": 8980,
      "protes": 8981,
      "ast": 8982,
      "situação": 8983,
      "augusto": 8984,
      "##quês": 8985,
      "acess": 8986,
      "açú": 8987,
      "##gueira": 8988,
      "##ivel": 8989,
      "##ation": 8990,
      "abrange": 8991,
      "romanc": 8992,
      "1947": 8993,
      "usar": 8994,
      "basco": 8995,
      "determinado": 8996,
      "científico": 8997,
      "restau": 8998,
      "1900": 8999,
      "music": 9000,
      "bairros": 9001,
      "global": 9002,
      "acadêm": 9003,
      "cacho": 9004,
      "dól": 9005,
      "##ilos": 9006,
      "asc": 9007,
      "##nou": 9008,
      "constitui": 9009,
      "dinossa": 9010,
      "influenc": 9011,
      "parlamento": 9012,
      "hard": 9013,
      "##esas": 9014,
      "céu": 9015,
      "satél": 9016,
      "aspectos": 9017,
      "inclusive": 9018,
      "##éticos": 9019,
      "designa": 9020,
      "##atório": 9021,
      "organismos": 9022,
      "alemães": 9023,
      "aplicação": 9024,
      "individ": 9025,
      "protocol": 9026,
      "guadala": 9027,
      "##rano": 9028,
      "confe": 9029,
      "##emburgo": 9030,
      "famosa": 9031,
      "##vora": 9032,
      "dificul": 9033,
      "##ae": 9034,
      "##acto": 9035,
      "será": 9036,
      "ribeirão": 9037,
      "escolas": 9038,
      "árvore": 9039,
      "jose": 9040,
      "##ianismo": 9041,
      "aprov": 9042,
      "renda": 9043,
      "futuro": 9044,
      "down": 9045,
      "evang": 9046,
      "1949": 9047,
      "tole": 9048,
      "##esp": 9049,
      "direc": 9050,
      "ganha": 9051,
      "ham": 9052,
      "##vers": 9053,
      "descar": 9054,
      "começaram": 9055,
      "moradores": 9056,
      "##ror": 9057,
      "marít": 9058,
      "elabo": 9059,
      "1890": 9060,
      "pesquisas": 9061,
      "##orit": 9062,
      "##ett": 9063,
      "martin": 9064,
      "costuma": 9065,
      "##gada": 9066,
      "##58": 9067,
      "peça": 9068,
      "clássica": 9069,
      "card": 9070,
      "culturais": 9071,
      "fla": 9072,
      "gio": 9073,
      "##igua": 9074,
      "compa": 9075,
      "carol": 9076,
      "1956": 9077,
      "econom": 9078,
      "##rega": 9079,
      "##ione": 9080,
      "arra": 9081,
      "cursos": 9082,
      "ambas": 9083,
      "aplicações": 9084,
      "tocant": 9085,
      "respeito": 9086,
      "vêneto": 9087,
      "cen": 9088,
      "tó": 9089,
      "essencial": 9090,
      "ibérica": 9091,
      "frequência": 9092,
      "fir": 9093,
      "##icar": 9094,
      "montes": 9095,
      "coron": 9096,
      "160": 9097,
      "120": 9098,
      "han": 9099,
      "##ater": 9100,
      "cristãos": 9101,
      "liberal": 9102,
      "pertencia": 9103,
      "toledo": 9104,
      "##mun": 9105,
      "desenho": 9106,
      "cruzeiro": 9107,
      "moléc": 9108,
      "1864": 9109,
      "necessidade": 9110,
      "##bus": 9111,
      "##érg": 9112,
      "encontrado": 9113,
      "170": 9114,
      "ficção": 9115,
      "gama": 9116,
      "fós": 9117,
      "##utação": 9118,
      "lua": 9119,
      "torne": 9120,
      "posto": 9121,
      "avenida": 9122,
      "bomb": 9123,
      "sá": 9124,
      "ses": 9125,
      "reserva": 9126,
      "##bara": 9127,
      "receber": 9128,
      "fas": 9129,
      "dela": 9130,
      "cop": 9131,
      "inform": 9132,
      "abor": 9133,
      "sold": 9134,
      "girona": 9135,
      "##itando": 9136,
      "populoso": 9137,
      "##ipo": 9138,
      "publicada": 9139,
      "quadrados": 9140,
      "##ficiente": 9141,
      "rodovia": 9142,
      "cóp": 9143,
      "##tações": 9144,
      "##iguidade": 9145,
      "estudar": 9146,
      "usa": 9147,
      "facto": 9148,
      "tradicionais": 9149,
      "irlanda": 9150,
      "##egu": 9151,
      "##ance": 9152,
      "proxim": 9153,
      "mesorregião": 9154,
      "michael": 9155,
      "deco": 9156,
      "maj": 9157,
      "##ensões": 9158,
      "indica": 9159,
      "##racia": 9160,
      "céus": 9161,
      "graduação": 9162,
      "mamífer": 9163,
      "##ling": 9164,
      "##iras": 9165,
      "maur": 9166,
      "possuía": 9167,
      "1946": 9168,
      "sexual": 9169,
      "mecan": 9170,
      "dre": 9171,
      "##dão": 9172,
      "1910": 9173,
      "indígena": 9174,
      "net": 9175,
      "xv": 9176,
      "suécia": 9177,
      "resistência": 9178,
      "manter": 9179,
      "paroquial": 9180,
      "gig": 9181,
      "stu": 9182,
      "zo": 9183,
      "##óvel": 9184,
      "chegar": 9185,
      "resulta": 9186,
      "olímpicos": 9187,
      "continental": 9188,
      "constante": 9189,
      "coreia": 9190,
      "1943": 9191,
      "documentos": 9192,
      "##ede": 9193,
      "carde": 9194,
      "fazend": 9195,
      "igrejas": 9196,
      "sha": 9197,
      "##udio": 9198,
      "consist": 9199,
      "celular": 9200,
      "componentes": 9201,
      "bret": 9202,
      "##lino": 9203,
      "##fra": 9204,
      "dona": 9205,
      "proble": 9206,
      "##atória": 9207,
      "leo": 9208,
      "##lov": 9209,
      "franco": 9210,
      "##érico": 9211,
      "plac": 9212,
      "isl": 9213,
      "##ológicas": 9214,
      "comerciais": 9215,
      "##way": 9216,
      "planej": 9217,
      "##uda": 9218,
      "##ator": 9219,
      "##itual": 9220,
      "confede": 9221,
      "ip": 9222,
      "rica": 9223,
      "##ster": 9224,
      "dança": 9225,
      "##erado": 9226,
      "escócia": 9227,
      "guatem": 9228,
      "vinte": 9229,
      "anteriores": 9230,
      "abrevia": 9231,
      "##étro": 9232,
      "##ícias": 9233,
      "barro": 9234,
      "realidade": 9235,
      "complex": 9236,
      "fras": 9237,
      "##ensis": 9238,
      "##urus": 9239,
      "nasce": 9240,
      "ferram": 9241,
      "organizações": 9242,
      "garant": 9243,
      "textos": 9244,
      "limitado": 9245,
      "tribun": 9246,
      "pele": 9247,
      "mur": 9248,
      "santana": 9249,
      "##enciais": 9250,
      "preserv": 9251,
      "encontrar": 9252,
      "atravess": 9253,
      "digital": 9254,
      "##inar": 9255,
      "insc": 9256,
      "intelec": 9257,
      "gomes": 9258,
      "riv": 9259,
      "##gg": 9260,
      "##arc": 9261,
      "xiii": 9262,
      "problema": 9263,
      "01": 9264,
      "cho": 9265,
      "uc": 9266,
      "za": 9267,
      "zonas": 9268,
      "##ilhas": 9269,
      "##imp": 9270,
      "alt": 9271,
      "absol": 9272,
      "peixe": 9273,
      "celeb": 9274,
      "christ": 9275,
      "##48": 9276,
      "##lama": 9277,
      "elétro": 9278,
      "mediter": 9279,
      "publicação": 9280,
      "clássico": 9281,
      "ré": 9282,
      "áto": 9283,
      "frag": 9284,
      "enor": 9285,
      "artístico": 9286,
      "operação": 9287,
      "virtu": 9288,
      "princípios": 9289,
      "estimativas": 9290,
      "inverno": 9291,
      "iso": 9292,
      "padro": 9293,
      "angola": 9294,
      "mudança": 9295,
      "##tais": 9296,
      "##ath": 9297,
      "vilar": 9298,
      "geom": 9299,
      "definida": 9300,
      "cresceu": 9301,
      "##rios": 9302,
      "##fiel": 9303,
      "##bita": 9304,
      "##entas": 9305,
      "##ecido": 9306,
      "branc": 9307,
      "1939": 9308,
      "músico": 9309,
      "topônimo": 9310,
      "tiveram": 9311,
      "açúcar": 9312,
      "fusão": 9313,
      "##hado": 9314,
      "##çada": 9315,
      "##rava": 9316,
      "##urg": 9317,
      "cosm": 9318,
      "marcos": 9319,
      "potencial": 9320,
      "white": 9321,
      "fiz": 9322,
      "fech": 9323,
      "##isso": 9324,
      "falta": 9325,
      "representação": 9326,
      "domingos": 9327,
      "##tn": 9328,
      "##ata": 9329,
      "##dy": 9330,
      "max": 9331,
      "amigo": 9332,
      "##chi": 9333,
      "renas": 9334,
      "##çado": 9335,
      "resultados": 9336,
      "pesquis": 9337,
      "virg": 9338,
      "competições": 9339,
      "ans": 9340,
      "##ême": 9341,
      "##ând": 9342,
      "##any": 9343,
      "1955": 9344,
      "mediterr": 9345,
      "narra": 9346,
      "sinal": 9347,
      "##ries": 9348,
      "##engo": 9349,
      "##rian": 9350,
      "anual": 9351,
      "unidas": 9352,
      "designar": 9353,
      "historiador": 9354,
      "den": 9355,
      "##ald": 9356,
      "##érm": 9357,
      "159": 9358,
      "estreia": 9359,
      "erm": 9360,
      "space": 9361,
      "implem": 9362,
      "granada": 9363,
      "biologia": 9364,
      "tocantins": 9365,
      "##ep": 9366,
      "##ignano": 9367,
      "proteção": 9368,
      "nenhum": 9369,
      "mão": 9370,
      "##iti": 9371,
      "proced": 9372,
      "totalmente": 9373,
      "prémio": 9374,
      "mh": 9375,
      "cated": 9376,
      "realizar": 9377,
      "congresso": 9378,
      "anfíb": 9379,
      "##árqu": 9380,
      "transl": 9381,
      "estudantes": 9382,
      "rapidamente": 9383,
      "guerras": 9384,
      "##rico": 9385,
      "##xe": 9386,
      "##mou": 9387,
      "devem": 9388,
      "alente": 9389,
      "guimar": 9390,
      "necessário": 9391,
      "torneio": 9392,
      "bada": 9393,
      "pc": 9394,
      "mark": 9395,
      "passaram": 9396,
      "universal": 9397,
      "pedras": 9398,
      "vermelha": 9399,
      "jack": 9400,
      "adolesc": 9401,
      "clar": 9402,
      "##ígios": 9403,
      "invasão": 9404,
      "ric": 9405,
      "##iet": 9406,
      "provoc": 9407,
      "antiguidade": 9408,
      "graças": 9409,
      "infra": 9410,
      "moderno": 9411,
      "derrota": 9412,
      "##din": 9413,
      "##itam": 9414,
      "##ates": 9415,
      "##voa": 9416,
      "avanç": 9417,
      "discos": 9418,
      "biblioteca": 9419,
      "fi": 9420,
      "log": 9421,
      "coo": 9422,
      "criança": 9423,
      "reconhecido": 9424,
      "ramos": 9425,
      "projetos": 9426,
      "guiné": 9427,
      "exig": 9428,
      "1952": 9429,
      "1933": 9430,
      "poderia": 9431,
      "ideal": 9432,
      "ideias": 9433,
      "##rões": 9434,
      "##alves": 9435,
      "queda": 9436,
      "elimin": 9437,
      "editor": 9438,
      "pesca": 9439,
      "produzir": 9440,
      "campania": 9441,
      "autom": 9442,
      "telec": 9443,
      "missões": 9444,
      "amplamente": 9445,
      "hebra": 9446,
      "vid": 9447,
      "##ídia": 9448,
      "setor": 9449,
      "proven": 9450,
      "prete": 9451,
      "conjunt": 9452,
      "berlim": 9453,
      "gestão": 9454,
      "guil": 9455,
      "om": 9456,
      "grand": 9457,
      "##seis": 9458,
      "merid": 9459,
      "respectivamente": 9460,
      "mencion": 9461,
      "rac": 9462,
      "muda": 9463,
      "estuda": 9464,
      "visual": 9465,
      "indivíduos": 9466,
      "##idado": 9467,
      "altas": 9468,
      "calc": 9469,
      "voo": 9470,
      "intelig": 9471,
      "##icana": 9472,
      "diss": 9473,
      "jovens": 9474,
      "sonora": 9475,
      "gado": 9476,
      "tol": 9477,
      "cass": 9478,
      "fantas": 9479,
      "ax": 9480,
      "lad": 9481,
      "##vera": 9482,
      "perf": 9483,
      "##joz": 9484,
      "associado": 9485,
      "transmissão": 9486,
      "badajoz": 9487,
      "doze": 9488,
      "temas": 9489,
      "1951": 9490,
      "1944": 9491,
      "martinho": 9492,
      "navios": 9493,
      "manifesta": 9494,
      "gan": 9495,
      "hero": 9496,
      "##dal": 9497,
      "##edas": 9498,
      "presentes": 9499,
      "juventu": 9500,
      "renasc": 9501,
      "##itz": 9502,
      "supre": 9503,
      "app": 9504,
      "##inheiro": 9505,
      "estabeleceu": 9506,
      "https": 9507,
      "guaran": 9508,
      "guatemala": 9509,
      "guimarães": 9510,
      "##uf": 9511,
      "carga": 9512,
      "simbol": 9513,
      "gregos": 9514,
      "justiça": 9515,
      "gonçalves": 9516,
      "ingress": 9517,
      "fib": 9518,
      "consum": 9519,
      "brasília": 9520,
      "cost": 9521,
      "##ântica": 9522,
      "subdivid": 9523,
      "café": 9524,
      "##ivelmente": 9525,
      "ações": 9526,
      "you": 9527,
      "##hy": 9528,
      "##gica": 9529,
      "##idão": 9530,
      "exer": 9531,
      "minutos": 9532,
      "retira": 9533,
      "pensamento": 9534,
      "fundou": 9535,
      "imediata": 9536,
      "##iguações": 9537,
      "juventude": 9538,
      "li": 9539,
      "##nomia": 9540,
      "prefer": 9541,
      "religioso": 9542,
      "abertura": 9543,
      "vocalista": 9544,
      "##evo": 9545,
      "##tima": 9546,
      "caça": 9547,
      "seguir": 9548,
      "existentes": 9549,
      "aeron": 9550,
      "desambiguações": 9551,
      "west": 9552,
      "brasão": 9553,
      "##ixas": 9554,
      "compostos": 9555,
      "produzida": 9556,
      "reconhecimento": 9557,
      "boca": 9558,
      "ira": 9559,
      "##todos": 9560,
      "confir": 9561,
      "chegaram": 9562,
      "egíp": 9563,
      "gregor": 9564,
      "guitarrista": 9565,
      "##óveis": 9566,
      "##tagon": 9567,
      "huesca": 9568,
      "horizonte": 9569,
      "alfabeto": 9570,
      "sábado": 9571,
      "hall": 9572,
      "âng": 9573,
      "exterior": 9574,
      "dioc": 9575,
      "conflito": 9576,
      "ecol": 9577,
      "##ízes": 9578,
      "moeda": 9579,
      "sabe": 9580,
      "revolucion": 9581,
      "edifícios": 9582,
      "descendentes": 9583,
      "thomas": 9584,
      "aze": 9585,
      "##isp": 9586,
      "##quias": 9587,
      "barros": 9588,
      "experiência": 9589,
      "conteúdo": 9590,
      "citar": 9591,
      "ple": 9592,
      "##timo": 9593,
      "esfor": 9594,
      "149": 9595,
      "registro": 9596,
      "popularmente": 9597,
      "##mund": 9598,
      "##anta": 9599,
      "alimentos": 9600,
      "##etria": 9601,
      "cav": 9602,
      "computação": 9603,
      "topo": 9604,
      "neat": 9605,
      "city": 9606,
      "secretário": 9607,
      "blo": 9608,
      "##hl": 9609,
      "##ôno": 9610,
      "prol": 9611,
      "especific": 9612,
      "hig": 9613,
      "##66": 9614,
      "interme": 9615,
      "montanha": 9616,
      "revolta": 9617,
      "indivíduo": 9618,
      "##eas": 9619,
      "luiz": 9620,
      "bud": 9621,
      "honra": 9622,
      "united": 9623,
      "avel": 9624,
      "tos": 9625,
      "xi": 9626,
      "##25": 9627,
      "##imenta": 9628,
      "##riano": 9629,
      "centros": 9630,
      "extinção": 9631,
      "latino": 9632,
      "##aré": 9633,
      "reb": 9634,
      "princesa": 9635,
      "contato": 9636,
      "sacer": 9637,
      "capaz": 9638,
      "pés": 9639,
      "##28": 9640,
      "reação": 9641,
      "imped": 9642,
      "##ócios": 9643,
      "jus": 9644,
      "rog": 9645,
      "##ester": 9646,
      "cart": 9647,
      "##ball": 9648,
      "intermedi": 9649,
      "mín": 9650,
      "##zar": 9651,
      "##ani": 9652,
      "agl": 9653,
      "descoberto": 9654,
      "##erno": 9655,
      "##edores": 9656,
      "##plas": 9657,
      "louis": 9658,
      "vestígios": 9659,
      "##fel": 9660,
      "##onha": 9661,
      "##iosos": 9662,
      "mortos": 9663,
      "franceses": 9664,
      "diferença": 9665,
      "bateria": 9666,
      "1922": 9667,
      "viaj": 9668,
      "implant": 9669,
      "##ema": 9670,
      "##itária": 9671,
      "sed": 9672,
      "recor": 9673,
      "estreou": 9674,
      "dizer": 9675,
      "profissionais": 9676,
      "amea": 9677,
      "national": 9678,
      "gi": 9679,
      "pom": 9680,
      "cará": 9681,
      "leite": 9682,
      "##ógico": 9683,
      "junção": 9684,
      "aplica": 9685,
      "combate": 9686,
      "const": 9687,
      "cord": 9688,
      "milão": 9689,
      "mudanças": 9690,
      "kg": 9691,
      "oh": 9692,
      "suger": 9693,
      "oscar": 9694,
      "organismo": 9695,
      "largo": 9696,
      "##ologias": 9697,
      "póvoa": 9698,
      "sav": 9699,
      "portal": 9700,
      "feitos": 9701,
      "autoridade": 9702,
      "monumento": 9703,
      "cy": 9704,
      "lemb": 9705,
      "##iada": 9706,
      "protagon": 9707,
      "agro": 9708,
      "trento": 9709,
      "calábria": 9710,
      "aval": 9711,
      "existente": 9712,
      "meg": 9713,
      "##ipa": 9714,
      "desenvolver": 9715,
      "black": 9716,
      "nenhuma": 9717,
      "vinc": 9718,
      "##edo": 9719,
      "##fos": 9720,
      "dev": 9721,
      "interna": 9722,
      "camada": 9723,
      "distingu": 9724,
      "constitucional": 9725,
      "irmãs": 9726,
      "desses": 9727,
      "agrícola": 9728,
      "bou": 9729,
      "fon": 9730,
      "ix": 9731,
      "##load": 9732,
      "continua": 9733,
      "pertencentes": 9734,
      "humanidade": 9735,
      "##bu": 9736,
      "##íaco": 9737,
      "entidade": 9738,
      "classificado": 9739,
      "aquele": 9740,
      "progress": 9741,
      "##ídio": 9742,
      "prom": 9743,
      "confund": 9744,
      "pintor": 9745,
      "equipamentos": 9746,
      "##pal": 9747,
      "##ót": 9748,
      "caç": 9749,
      "comunidades": 9750,
      "fev": 9751,
      "##enham": 9752,
      "##cionamento": 9753,
      "##fd": 9754,
      "##enn": 9755,
      "##ecida": 9756,
      "traz": 9757,
      "árvores": 9758,
      "ino": 9759,
      "##gênio": 9760,
      "##24": 9761,
      "pred": 9762,
      "limite": 9763,
      "cristal": 9764,
      "bibliografia": 9765,
      "bretanha": 9766,
      "oposição": 9767,
      "comemo": 9768,
      "reais": 9769,
      "alves": 9770,
      "##atch": 9771,
      "freder": 9772,
      "afro": 9773,
      "começo": 9774,
      "arquivos": 9775,
      "equivalente": 9776,
      "bens": 9777,
      "##wood": 9778,
      "##eladas": 9779,
      "##urs": 9780,
      "tema": 9781,
      "fama": 9782,
      "fundadores": 9783,
      "métodos": 9784,
      "beat": 9785,
      "golfo": 9786,
      "trabalhadores": 9787,
      "alago": 9788,
      "ut": 9789,
      "##arte": 9790,
      "##ioc": 9791,
      "corn": 9792,
      "vallad": 9793,
      "ajud": 9794,
      "arquitec": 9795,
      "onda": 9796,
      "##nam": 9797,
      "encontrada": 9798,
      "utiliza": 9799,
      "1937": 9800,
      "ergu": 9801,
      "célula": 9802,
      "small": 9803,
      "mandato": 9804,
      "##uário": 9805,
      "perda": 9806,
      "modern": 9807,
      "expedição": 9808,
      "##oft": 9809,
      "coz": 9810,
      "naval": 9811,
      "projec": 9812,
      "júlio": 9813,
      "praticamente": 9814,
      "##érgamo": 9815,
      "nerv": 9816,
      "##49": 9817,
      "foral": 9818,
      "##quio": 9819,
      "usadas": 9820,
      "solução": 9821,
      "1928": 9822,
      "negócios": 9823,
      "regras": 9824,
      "pier": 9825,
      "finalmente": 9826,
      "phil": 9827,
      "riqu": 9828,
      "sino": 9829,
      "##iá": 9830,
      "##ênt": 9831,
      "parana": 9832,
      "terá": 9833,
      "regular": 9834,
      "conced": 9835,
      "vivem": 9836,
      "descobr": 9837,
      "símbolos": 9838,
      "##írus": 9839,
      "##sch": 9840,
      "##32": 9841,
      "margar": 9842,
      "perse": 9843,
      "##tividade": 9844,
      "1941": 9845,
      "nascente": 9846,
      "limita": 9847,
      "emancipação": 9848,
      "valladolid": 9849,
      "##rer": 9850,
      "##35": 9851,
      "##arn": 9852,
      "patro": 9853,
      "##nais": 9854,
      "perd": 9855,
      "conduz": 9856,
      "fatores": 9857,
      "uruguai": 9858,
      "bir": 9859,
      "segue": 9860,
      "escal": 9861,
      "1924": 9862,
      "modelos": 9863,
      "pinto": 9864,
      "##hn": 9865,
      "##ule": 9866,
      "apos": 9867,
      "##ânio": 9868,
      "divisa": 9869,
      "neto": 9870,
      "venda": 9871,
      "cristianismo": 9872,
      "máximo": 9873,
      "caráter": 9874,
      "cadas": 9875,
      "tru": 9876,
      "##õem": 9877,
      "vive": 9878,
      "alentejo": 9879,
      "##bit": 9880,
      "refor": 9881,
      "paredes": 9882,
      "comunista": 9883,
      "61": 9884,
      "ly": 9885,
      "advogado": 9886,
      "deputado": 9887,
      "tib": 9888,
      "ul": 9889,
      "##éticas": 9890,
      "##ulada": 9891,
      "##heim": 9892,
      "km2": 9893,
      "filos": 9894,
      "assina": 9895,
      "1942": 9896,
      "ataque": 9897,
      "humor": 9898,
      "ress": 9899,
      "##bas": 9900,
      "##ken": 9901,
      "##eiramente": 9902,
      "voltou": 9903,
      "troca": 9904,
      "determinada": 9905,
      "dessas": 9906,
      "viii": 9907,
      "bár": 9908,
      "casca": 9909,
      "intera": 9910,
      "mineral": 9911,
      "245": 9912,
      "designado": 9913,
      "martins": 9914,
      "##tolo": 9915,
      "##enco": 9916,
      "##utas": 9917,
      "roy": 9918,
      "##tilh": 9919,
      "1918": 9920,
      "negra": 9921,
      "junta": 9922,
      "normal": 9923,
      "executivo": 9924,
      "coronel": 9925,
      "king": 9926,
      "mãos": 9927,
      "tradução": 9928,
      "teór": 9929,
      "rota": 9930,
      "conquistou": 9931,
      "records": 9932,
      "cópias": 9933,
      "mamíferos": 9934,
      "vídeo": 9935,
      "press": 9936,
      "asi": 9937,
      "absor": 9938,
      "reserv": 9939,
      "autoria": 9940,
      "juan": 9941,
      "utilizando": 9942,
      "escritos": 9943,
      "instalado": 9944,
      "louren": 9945,
      "cuneo": 9946,
      "manoel": 9947,
      "cron": 9948,
      "diplo": 9949,
      "sir": 9950,
      "étn": 9951,
      "##uru": 9952,
      "##reiros": 9953,
      "quint": 9954,
      "##ênia": 9955,
      "viseu": 9956,
      "guilher": 9957,
      "sacerdo": 9958,
      "##úria": 9959,
      "font": 9960,
      "##riamente": 9961,
      "artic": 9962,
      "captura": 9963,
      "palest": 9964,
      "fronteiras": 9965,
      "##rana": 9966,
      "##rez": 9967,
      "##nch": 9968,
      "##ônicas": 9969,
      "culturas": 9970,
      "1934": 9971,
      "jesuí": 9972,
      "géneros": 9973,
      "##board": 9974,
      "scho": 9975,
      "luxemburgo": 9976,
      "mhz": 9977,
      "bél": 9978,
      "douto": 9979,
      "morto": 9980,
      "venceu": 9981,
      "lagos": 9982,
      "##uo": 9983,
      "pag": 9984,
      "##quis": 9985,
      "roberto": 9986,
      "legal": 9987,
      "certo": 9988,
      "objec": 9989,
      "terrestre": 9990,
      "historicamente": 9991,
      "sinais": 9992,
      "##29": 9993,
      "festas": 9994,
[...]
